{"version":"1.0","truncation":{"max_length":512,"strategy":"LongestFirst","stride":0},"padding":{"strategy":"BatchLongest","direction":"Right","pad_to_multiple_of":null,"pad_id":0,"pad_type_id":0,"pad_token":"[PAD]"},"added_tokens":[{"id":0,"special":true,"content":"[PAD]","single_word":false,"lstrip":false,"rstrip":false,"normalized":false},{"id":1,"special":true,"content":"[UNK]","single_word":false,"lstrip":false,"rstrip":false,"normalized":false},{"id":2,"special":true,"content":"[CLS]","single_word":false,"lstrip":false,"rstrip":false,"normalized":false},{"id":3,"special":true,"content":"[SEP]","single_word":false,"lstrip":false,"rstrip":false,"normalized":false},{"id":4,"special":true,"content":"[MASK]","single_word":false,"lstrip":false,"rstrip":false,"normalized":false}],"normalizer":{"type":"BertNormalizer","clean_text":true,"handle_chinese_chars":true,"strip_accents":null,"lowercase":false},"pre_tokenizer":{"type":"BertPreTokenizer"},"post_processor":{"type":"TemplateProcessing","single":[{"SpecialToken":{"id":"[CLS]","type_id":0}},{"Sequence":{"id":"A","type_id":0}},{"SpecialToken":{"id":"[SEP]","type_id":0}}],"pair":[{"SpecialToken":{"id":"[CLS]","type_id":0}},{"Sequence":{"id":"A","type_id":0}},{"SpecialToken":{"id":"[SEP]","type_id":0}},{"Sequence":{"id":"B","type_id":1}},{"SpecialToken":{"id":"[SEP]","type_id":1}}],"special_tokens":{"[CLS]":{"id":"[CLS]","ids":[2],"tokens":["[CLS]"]},"[SEP]":{"id":"[SEP]","ids":[3],"tokens":["[SEP]"]}}},"decoder":{"type":"WordPiece","prefix":"##","cleanup":true},"model":{"type":"WordPiece","unk_token":"[UNK]","continuing_subword_prefix":"##","max_input_chars_per_word":100,"vocab":{"[PAD]":0,"[UNK]":1,"[CLS]":2,"[SEP]":3,"[MASK]":4,"[unused1]":5,"[unused2]":6,"[unused3]":7,"[unused4]":8,"[unused5]":9,"[unused6]":10,"[unused7]":11,"[unused8]":12,"[unused9]":13,"[unused10]":14,"[unused11]":15,"[unused12]":16,"[unused13]":17,"[unused14]":18,"[unused15]":19,"[unused16]":20,"[unused17]":21,"[unused18]":22,"[unused19]":23,"[unused20]":24,"[unused21]":25,"[unused22]":26,"[unused23]":27,"[unused24]":28,"[unused25]":29,"[unused26]":30,"[unused27]":31,"[unused28]":32,"[unused29]":33,"[unused30]":34,"[unused31]":35,"[unused32]":36,"[unused33]":37,"[unused34]":38,"[unused35]":39,"[unused36]":40,"[unused37]":41,"[unused38]":42,"[unused39]":43,"[unused40]":44,"[unused41]":45,"[unused42]":46,"[unused43]":47,"[unused44]":48,"[unused45]":49,"[unused46]":50,"[unused47]":51,"[unused48]":52,"[unused49]":53,"[unused50]":54,"[unused51]":55,"[unused52]":56,"[unused53]":57,"[unused54]":58,"[unused55]":59,"[unused56]":60,"[unused57]":61,"[unused58]":62,"[unused59]":63,"[unused60]":64,"[unused61]":65,"[unused62]":66,"[unused63]":67,"[unused64]":68,"[unused65]":69,"[unused66]":70,"[unused67]":71,"[unused68]":72,"[unused69]":73,"[unused70]":74,"[unused71]":75,"[unused72]":76,"[unused73]":77,"[unused74]":78,"[unused75]":79,"[unused76]":80,"[unused77]":81,"[unused78]":82,"[unused79]":83,"[unused80]":84,"[unused81]":85,"[unused82]":86,"[unused83]":87,"[unused84]":88,"[unused85]":89,"[unused86]":90,"[unused87]":91,"[unused88]":92,"[unused89]":93,"[unused90]":94,"[unused91]":95,"[unused92]":96,"[unused93]":97,"[unused94]":98,"[unused95]":99,"[unused96]":100,"[unused97]":101,"[unused98]":102,"[unused99]":103,"[unused100]":104,"[unused101]":105,"[unused102]":106,"[unused103]":107,"[unused104]":108,"[unused105]":109,"[unused106]":110,"[unused107]":111,"[unused108]":112,"[unused109]":113,"[unused110]":114,"[unused111]":115,"[unused112]":116,"[unused113]":117,"[unused114]":118,"[unused115]":119,"[unused116]":120,"[unused117]":121,"[unused118]":122,"[unused119]":123,"[unused120]":124,"[unused121]":125,"[unused122]":126,"[unused123]":127,"[unused124]":128,"[unused125]":129,"[unused126]":130,"[unused127]":131,"[unused128]":132,"[unused129]":133,"[unused130]":134,"[unused131]":135,"[unused132]":136,"[unused133]":137,"[unused134]":138,"[unused135]":139,"[unused136]":140,"[unused137]":141,"[unused138]":142,"[unused139]":143,"[unused140]":144,"[unused141]":145,"[unused142]":146,"[unused143]":147,"[unused144]":148,"[unused145]":149,"[unused146]":150,"[unused147]":151,"[unused148]":152,"[unused149]":153,"[unused150]":154,"[unused151]":155,"[unused152]":156,"[unused153]":157,"[unused154]":158,"[unused155]":159,"[unused156]":160,"[unused157]":161,"[unused158]":162,"[unused159]":163,"[unused160]":164,"[unused161]":165,"[unused162]":166,"[unused163]":167,"[unused164]":168,"[unused165]":169,"[unused166]":170,"[unused167]":171,"[unused168]":172,"[unused169]":173,"[unused170]":174,"[unused171]":175,"[unused172]":176,"[unused173]":177,"[unused174]":178,"[unused175]":179,"[unused176]":180,"[unused177]":181,"[unused178]":182,"[unused179]":183,"[unused180]":184,"[unused181]":185,"[unused182]":186,"[unused183]":187,"[unused184]":188,"[unused185]":189,"[unused186]":190,"[unused187]":191,"[unused188]":192,"[unused189]":193,"[unused190]":194,"[unused191]":195,"[unused192]":196,"[unused193]":197,"[unused194]":198,"[unused195]":199,"[unused196]":200,"[unused197]":201,"[unused198]":202,"[unused199]":203,"[unused200]":204,"[unused201]":205,"[unused202]":206,"[unused203]":207,"[unused204]":208,"[unused205]":209,"[unused206]":210,"[unused207]":211,"[unused208]":212,"[unused209]":213,"[unused210]":214,"[unused211]":215,"[unused212]":216,"[unused213]":217,"[unused214]":218,"[unused215]":219,"[unused216]":220,"[unused217]":221,"[unused218]":222,"[unused219]":223,"[unused220]":224,"[unused221]":225,"[unused222]":226,"[unused223]":227,"[unused224]":228,"[unused225]":229,"[unused226]":230,"[unused227]":231,"[unused228]":232,"[unused229]":233,"[unused230]":234,"[unused231]":235,"[unused232]":236,"[unused233]":237,"[unused234]":238,"[unused235]":239,"[unused236]":240,"[unused237]":241,"[unused238]":242,"[unused239]":243,"[unused240]":244,"[unused241]":245,"[unused242]":246,"[unused243]":247,"[unused244]":248,"[unused245]":249,"[unused246]":250,"[unused247]":251,"[unused248]":252,"[unused249]":253,"[unused250]":254,"[unused251]":255,"[unused252]":256,"[unused253]":257,"[unused254]":258,"[unused255]":259,"[unused256]":260,"[unused257]":261,"[unused258]":262,"[unused259]":263,"[unused260]":264,"[unused261]":265,"[unused262]":266,"[unused263]":267,"[unused264]":268,"[unused265]":269,"[unused266]":270,"[unused267]":271,"[unused268]":272,"[unused269]":273,"[unused270]":274,"[unused271]":275,"[unused272]":276,"[unused273]":277,"[unused274]":278,"[unused275]":279,"[unused276]":280,"[unused277]":281,"[unused278]":282,"[unused279]":283,"[unused280]":284,"[unused281]":285,"[unused282]":286,"[unused283]":287,"[unused284]":288,"[unused285]":289,"[unused286]":290,"[unused287]":291,"[unused288]":292,"[unused289]":293,"[unused290]":294,"[unused291]":295,"[unused292]":296,"[unused293]":297,"[unused294]":298,"[unused295]":299,"[unused296]":300,"[unused297]":301,"[unused298]":302,"[unused299]":303,"[unused300]":304,"[unused301]":305,"[unused302]":306,"[unused303]":307,"[unused304]":308,"[unused305]":309,"[unused306]":310,"[unused307]":311,"[unused308]":312,"[unused309]":313,"[unused310]":314,"[unused311]":315,"[unused312]":316,"[unused313]":317,"[unused314]":318,"[unused315]":319,"[unused316]":320,"[unused317]":321,"[unused318]":322,"[unused319]":323,"[unused320]":324,"[unused321]":325,"[unused322]":326,"[unused323]":327,"[unused324]":328,"[unused325]":329,"[unused326]":330,"[unused327]":331,"[unused328]":332,"[unused329]":333,"[unused330]":334,"[unused331]":335,"[unused332]":336,"[unused333]":337,"[unused334]":338,"[unused335]":339,"[unused336]":340,"[unused337]":341,"[unused338]":342,"[unused339]":343,"[unused340]":344,"[unused341]":345,"[unused342]":346,"[unused343]":347,"[unused344]":348,"[unused345]":349,"[unused346]":350,"[unused347]":351,"[unused348]":352,"[unused349]":353,"[unused350]":354,"[unused351]":355,"[unused352]":356,"[unused353]":357,"[unused354]":358,"[unused355]":359,"[unused356]":360,"[unused357]":361,"[unused358]":362,"[unused359]":363,"[unused360]":364,"[unused361]":365,"[unused362]":366,"[unused363]":367,"[unused364]":368,"[unused365]":369,"[unused366]":370,"[unused367]":371,"[unused368]":372,"[unused369]":373,"[unused370]":374,"[unused371]":375,"[unused372]":376,"[unused373]":377,"[unused374]":378,"[unused375]":379,"[unused376]":380,"[unused377]":381,"[unused378]":382,"[unused379]":383,"[unused380]":384,"[unused381]":385,"[unused382]":386,"[unused383]":387,"[unused384]":388,"[unused385]":389,"[unused386]":390,"[unused387]":391,"[unused388]":392,"[unused389]":393,"[unused390]":394,"[unused391]":395,"[unused392]":396,"[unused393]":397,"[unused394]":398,"[unused395]":399,"[unused396]":400,"[unused397]":401,"[unused398]":402,"[unused399]":403,"[unused400]":404,"[unused401]":405,"[unused402]":406,"[unused403]":407,"[unused404]":408,"[unused405]":409,"[unused406]":410,"[unused407]":411,"[unused408]":412,"[unused409]":413,"[unused410]":414,"[unused411]":415,"[unused412]":416,"[unused413]":417,"[unused414]":418,"[unused415]":419,"[unused416]":420,"[unused417]":421,"[unused418]":422,"[unused419]":423,"[unused420]":424,"[unused421]":425,"[unused422]":426,"[unused423]":427,"[unused424]":428,"[unused425]":429,"[unused426]":430,"[unused427]":431,"[unused428]":432,"[unused429]":433,"[unused430]":434,"[unused431]":435,"[unused432]":436,"[unused433]":437,"[unused434]":438,"[unused435]":439,"[unused436]":440,"[unused437]":441,"[unused438]":442,"[unused439]":443,"[unused440]":444,"[unused441]":445,"[unused442]":446,"[unused443]":447,"[unused444]":448,"[unused445]":449,"[unused446]":450,"[unused447]":451,"[unused448]":452,"[unused449]":453,"[unused450]":454,"[unused451]":455,"[unused452]":456,"[unused453]":457,"[unused454]":458,"[unused455]":459,"[unused456]":460,"[unused457]":461,"[unused458]":462,"[unused459]":463,"[unused460]":464,"[unused461]":465,"[unused462]":466,"[unused463]":467,"[unused464]":468,"[unused465]":469,"[unused466]":470,"[unused467]":471,"[unused468]":472,"[unused469]":473,"[unused470]":474,"[unused471]":475,"[unused472]":476,"[unused473]":477,"[unused474]":478,"[unused475]":479,"[unused476]":480,"[unused477]":481,"[unused478]":482,"[unused479]":483,"[unused480]":484,"[unused481]":485,"[unused482]":486,"[unused483]":487,"[unused484]":488,"[unused485]":489,"[unused486]":490,"[unused487]":491,"[unused488]":492,"[unused489]":493,"[unused490]":494,"[unused491]":495,"[unused492]":496,"[unused493]":497,"[unused494]":498,"[unused495]":499,"[unused496]":500,"[unused497]":501,"[unused498]":502,"[unused499]":503,"[unused500]":504,"[unused501]":505,"[unused502]":506,"[unused503]":507,"[unused504]":508,"[unused505]":509,"[unused506]":510,"[unused507]":511,"[unused508]":512,"[unused509]":513,"[unused510]":514,"[unused511]":515,"[unused512]":516,"[unused513]":517,"[unused514]":518,"[unused515]":519,"[unused516]":520,"[unused517]":521,"[unused518]":522,"[unused519]":523,"[unused520]":524,"[unused521]":525,"[unused522]":526,"[unused523]":527,"[unused524]":528,"[unused525]":529,"[unused526]":530,"[unused527]":531,"[unused528]":532,"[unused529]":533,"[unused530]":534,"[unused531]":535,"[unused532]":536,"[unused533]":537,"[unused534]":538,"[unused535]":539,"[unused536]":540,"[unused537]":541,"[unused538]":542,"[unused539]":543,"[unused540]":544,"[unused541]":545,"[unused542]":546,"[unused543]":547,"[unused544]":548,"[unused545]":549,"[unused546]":550,"[unused547]":551,"[unused548]":552,"[unused549]":553,"[unused550]":554,"[unused551]":555,"[unused552]":556,"[unused553]":557,"[unused554]":558,"[unused555]":559,"[unused556]":560,"[unused557]":561,"[unused558]":562,"[unused559]":563,"[unused560]":564,"[unused561]":565,"[unused562]":566,"[unused563]":567,"[unused564]":568,"[unused565]":569,"[unused566]":570,"[unused567]":571,"[unused568]":572,"[unused569]":573,"[unused570]":574,"[unused571]":575,"[unused572]":576,"[unused573]":577,"[unused574]":578,"[unused575]":579,"[unused576]":580,"[unused577]":581,"[unused578]":582,"[unused579]":583,"[unused580]":584,"[unused581]":585,"[unused582]":586,"[unused583]":587,"[unused584]":588,"[unused585]":589,"[unused586]":590,"[unused587]":591,"[unused588]":592,"[unused589]":593,"[unused590]":594,"[unused591]":595,"[unused592]":596,"[unused593]":597,"[unused594]":598,"[unused595]":599,"[unused596]":600,"[unused597]":601,"[unused598]":602,"[unused599]":603,"[unused600]":604,"[unused601]":605,"[unused602]":606,"[unused603]":607,"[unused604]":608,"[unused605]":609,"[unused606]":610,"[unused607]":611,"[unused608]":612,"[unused609]":613,"[unused610]":614,"[unused611]":615,"[unused612]":616,"[unused613]":617,"[unused614]":618,"[unused615]":619,"[unused616]":620,"[unused617]":621,"[unused618]":622,"[unused619]":623,"[unused620]":624,"[unused621]":625,"[unused622]":626,"[unused623]":627,"[unused624]":628,"[unused625]":629,"[unused626]":630,"[unused627]":631,"[unused628]":632,"[unused629]":633,"[unused630]":634,"[unused631]":635,"[unused632]":636,"[unused633]":637,"[unused634]":638,"[unused635]":639,"[unused636]":640,"[unused637]":641,"[unused638]":642,"[unused639]":643,"[unused640]":644,"[unused641]":645,"[unused642]":646,"[unused643]":647,"[unused644]":648,"[unused645]":649,"[unused646]":650,"[unused647]":651,"[unused648]":652,"[unused649]":653,"[unused650]":654,"[unused651]":655,"[unused652]":656,"[unused653]":657,"[unused654]":658,"[unused655]":659,"[unused656]":660,"[unused657]":661,"[unused658]":662,"[unused659]":663,"[unused660]":664,"[unused661]":665,"[unused662]":666,"[unused663]":667,"[unused664]":668,"[unused665]":669,"[unused666]":670,"[unused667]":671,"[unused668]":672,"[unused669]":673,"[unused670]":674,"[unused671]":675,"[unused672]":676,"[unused673]":677,"[unused674]":678,"[unused675]":679,"[unused676]":680,"[unused677]":681,"[unused678]":682,"[unused679]":683,"[unused680]":684,"[unused681]":685,"[unused682]":686,"[unused683]":687,"[unused684]":688,"[unused685]":689,"[unused686]":690,"[unused687]":691,"[unused688]":692,"[unused689]":693,"[unused690]":694,"[unused691]":695,"[unused692]":696,"[unused693]":697,"[unused694]":698,"[unused695]":699,"[unused696]":700,"[unused697]":701,"[unused698]":702,"[unused699]":703,"[unused700]":704,"[unused701]":705,"[unused702]":706,"[unused703]":707,"[unused704]":708,"[unused705]":709,"[unused706]":710,"[unused707]":711,"[unused708]":712,"[unused709]":713,"[unused710]":714,"[unused711]":715,"[unused712]":716,"[unused713]":717,"[unused714]":718,"[unused715]":719,"[unused716]":720,"[unused717]":721,"[unused718]":722,"[unused719]":723,"[unused720]":724,"[unused721]":725,"[unused722]":726,"[unused723]":727,"[unused724]":728,"[unused725]":729,"[unused726]":730,"[unused727]":731,"[unused728]":732,"[unused729]":733,"[unused730]":734,"[unused731]":735,"[unused732]":736,"[unused733]":737,"[unused734]":738,"[unused735]":739,"[unused736]":740,"[unused737]":741,"[unused738]":742,"[unused739]":743,"[unused740]":744,"[unused741]":745,"[unused742]":746,"[unused743]":747,"[unused744]":748,"[unused745]":749,"[unused746]":750,"[unused747]":751,"[unused748]":752,"[unused749]":753,"[unused750]":754,"[unused751]":755,"[unused752]":756,"[unused753]":757,"[unused754]":758,"[unused755]":759,"[unused756]":760,"[unused757]":761,"[unused758]":762,"[unused759]":763,"[unused760]":764,"[unused761]":765,"[unused762]":766,"[unused763]":767,"[unused764]":768,"[unused765]":769,"[unused766]":770,"[unused767]":771,"[unused768]":772,"[unused769]":773,"[unused770]":774,"[unused771]":775,"[unused772]":776,"[unused773]":777,"[unused774]":778,"[unused775]":779,"[unused776]":780,"[unused777]":781,"[unused778]":782,"[unused779]":783,"[unused780]":784,"[unused781]":785,"[unused782]":786,"[unused783]":787,"[unused784]":788,"[unused785]":789,"[unused786]":790,"[unused787]":791,"[unused788]":792,"[unused789]":793,"[unused790]":794,"[unused791]":795,"[unused792]":796,"[unused793]":797,"[unused794]":798,"[unused795]":799,"[unused796]":800,"[unused797]":801,"[unused798]":802,"[unused799]":803,"[unused800]":804,"[unused801]":805,"[unused802]":806,"[unused803]":807,"[unused804]":808,"[unused805]":809,"[unused806]":810,"[unused807]":811,"[unused808]":812,"[unused809]":813,"[unused810]":814,"[unused811]":815,"[unused812]":816,"[unused813]":817,"[unused814]":818,"[unused815]":819,"[unused816]":820,"[unused817]":821,"[unused818]":822,"[unused819]":823,"[unused820]":824,"[unused821]":825,"[unused822]":826,"[unused823]":827,"[unused824]":828,"[unused825]":829,"[unused826]":830,"[unused827]":831,"[unused828]":832,"[unused829]":833,"[unused830]":834,"[unused831]":835,"[unused832]":836,"[unused833]":837,"[unused834]":838,"[unused835]":839,"[unused836]":840,"[unused837]":841,"[unused838]":842,"[unused839]":843,"[unused840]":844,"[unused841]":845,"[unused842]":846,"[unused843]":847,"[unused844]":848,"[unused845]":849,"[unused846]":850,"[unused847]":851,"[unused848]":852,"[unused849]":853,"[unused850]":854,"[unused851]":855,"[unused852]":856,"[unused853]":857,"[unused854]":858,"[unused855]":859,"[unused856]":860,"[unused857]":861,"[unused858]":862,"[unused859]":863,"[unused860]":864,"[unused861]":865,"[unused862]":866,"[unused863]":867,"[unused864]":868,"[unused865]":869,"[unused866]":870,"[unused867]":871,"[unused868]":872,"[unused869]":873,"[unused870]":874,"[unused871]":875,"[unused872]":876,"[unused873]":877,"[unused874]":878,"[unused875]":879,"[unused876]":880,"[unused877]":881,"[unused878]":882,"[unused879]":883,"[unused880]":884,"[unused881]":885,"[unused882]":886,"[unused883]":887,"[unused884]":888,"[unused885]":889,"[unused886]":890,"[unused887]":891,"[unused888]":892,"[unused889]":893,"[unused890]":894,"[unused891]":895,"[unused892]":896,"[unused893]":897,"[unused894]":898,"[unused895]":899,"[unused896]":900,"[unused897]":901,"[unused898]":902,"[unused899]":903,"[unused900]":904,"[unused901]":905,"[unused902]":906,"[unused903]":907,"[unused904]":908,"[unused905]":909,"[unused906]":910,"[unused907]":911,"[unused908]":912,"[unused909]":913,"[unused910]":914,"[unused911]":915,"[unused912]":916,"[unused913]":917,"[unused914]":918,"[unused915]":919,"[unused916]":920,"[unused917]":921,"[unused918]":922,"[unused919]":923,"[unused920]":924,"[unused921]":925,"[unused922]":926,"[unused923]":927,"[unused924]":928,"[unused925]":929,"[unused926]":930,"[unused927]":931,"[unused928]":932,"[unused929]":933,"[unused930]":934,"[unused931]":935,"[unused932]":936,"[unused933]":937,"[unused934]":938,"[unused935]":939,"[unused936]":940,"[unused937]":941,"[unused938]":942,"[unused939]":943,"[unused940]":944,"[unused941]":945,"[unused942]":946,"[unused943]":947,"[unused944]":948,"[unused945]":949,"[unused946]":950,"[unused947]":951,"[unused948]":952,"[unused949]":953,"[unused950]":954,"[unused951]":955,"[unused952]":956,"[unused953]":957,"[unused954]":958,"[unused955]":959,"[unused956]":960,"[unused957]":961,"[unused958]":962,"[unused959]":963,"[unused960]":964,"[unused961]":965,"[unused962]":966,"[unused963]":967,"[unused964]":968,"[unused965]":969,"[unused966]":970,"[unused967]":971,"[unused968]":972,"[unused969]":973,"[unused970]":974,"[unused971]":975,"[unused972]":976,"[unused973]":977,"[unused974]":978,"[unused975]":979,"[unused976]":980,"[unused977]":981,"[unused978]":982,"[unused979]":983,"[unused980]":984,"[unused981]":985,"[unused982]":986,"[unused983]":987,"[unused984]":988,"[unused985]":989,"[unused986]":990,"[unused987]":991,"[unused988]":992,"[unused989]":993,"[unused990]":994,"[unused991]":995,"[unused992]":996,"[unused993]":997,"[unused994]":998,"[unused995]":999,"[unused996]":1000,"[unused997]":1001,"[unused998]":1002,"[unused999]":1003,"[unused1000]":1004,"[unused1001]":1005,"[unused1002]":1006,"[unused1003]":1007,"[unused1004]":1008,"[unused1005]":1009,"[unused1006]":1010,"[unused1007]":1011,"[unused1008]":1012,"[unused1009]":1013,"[unused1010]":1014,"[unused1011]":1015,"[unused1012]":1016,"[unused1013]":1017,"[unused1014]":1018,"[unused1015]":1019,"[unused1016]":1020,"[unused1017]":1021,"[unused1018]":1022,"[unused1019]":1023,"[unused1020]":1024,"[unused1021]":1025,"[unused1022]":1026,"[unused1023]":1027,"[unused1024]":1028,"[unused1025]":1029,"[unused1026]":1030,"[unused1027]":1031,"[unused1028]":1032,"[unused1029]":1033,"[unused1030]":1034,"[unused1031]":1035,"[unused1032]":1036,"[unused1033]":1037,"[unused1034]":1038,"[unused1035]":1039,"[unused1036]":1040,"[unused1037]":1041,"[unused1038]":1042,"[unused1039]":1043,"[unused1040]":1044,"[unused1041]":1045,"[unused1042]":1046,"[unused1043]":1047,"[unused1044]":1048,"[unused1045]":1049,"[unused1046]":1050,"[unused1047]":1051,"[unused1048]":1052,"[unused1049]":1053,"[unused1050]":1054,"[unused1051]":1055,"[unused1052]":1056,"[unused1053]":1057,"[unused1054]":1058,"[unused1055]":1059,"[unused1056]":1060,"[unused1057]":1061,"[unused1058]":1062,"[unused1059]":1063,"[unused1060]":1064,"[unused1061]":1065,"[unused1062]":1066,"[unused1063]":1067,"[unused1064]":1068,"[unused1065]":1069,"[unused1066]":1070,"[unused1067]":1071,"[unused1068]":1072,"[unused1069]":1073,"[unused1070]":1074,"[unused1071]":1075,"[unused1072]":1076,"[unused1073]":1077,"[unused1074]":1078,"[unused1075]":1079,"[unused1076]":1080,"[unused1077]":1081,"[unused1078]":1082,"[unused1079]":1083,"[unused1080]":1084,"[unused1081]":1085,"[unused1082]":1086,"[unused1083]":1087,"[unused1084]":1088,"[unused1085]":1089,"[unused1086]":1090,"[unused1087]":1091,"[unused1088]":1092,"[unused1089]":1093,"[unused1090]":1094,"[unused1091]":1095,"[unused1092]":1096,"[unused1093]":1097,"[unused1094]":1098,"[unused1095]":1099,"[unused1096]":1100,"[unused1097]":1101,"[unused1098]":1102,"[unused1099]":1103,"[unused1100]":1104,"[unused1101]":1105,"[unused1102]":1106,"[unused1103]":1107,"[unused1104]":1108,"[unused1105]":1109,"[unused1106]":1110,"[unused1107]":1111,"[unused1108]":1112,"[unused1109]":1113,"[unused1110]":1114,"[unused1111]":1115,"[unused1112]":1116,"[unused1113]":1117,"[unused1114]":1118,"[unused1115]":1119,"[unused1116]":1120,"[unused1117]":1121,"[unused1118]":1122,"[unused1119]":1123,"[unused1120]":1124,"[unused1121]":1125,"[unused1122]":1126,"[unused1123]":1127,"[unused1124]":1128,"[unused1125]":1129,"[unused1126]":1130,"[unused1127]":1131,"[unused1128]":1132,"[unused1129]":1133,"[unused1130]":1134,"[unused1131]":1135,"[unused1132]":1136,"[unused1133]":1137,"[unused1134]":1138,"[unused1135]":1139,"[unused1136]":1140,"[unused1137]":1141,"[unused1138]":1142,"[unused1139]":1143,"[unused1140]":1144,"[unused1141]":1145,"[unused1142]":1146,"[unused1143]":1147,"[unused1144]":1148,"[unused1145]":1149,"[unused1146]":1150,"[unused1147]":1151,"[unused1148]":1152,"[unused1149]":1153,"[unused1150]":1154,"[unused1151]":1155,"[unused1152]":1156,"[unused1153]":1157,"[unused1154]":1158,"[unused1155]":1159,"[unused1156]":1160,"[unused1157]":1161,"[unused1158]":1162,"[unused1159]":1163,"[unused1160]":1164,"[unused1161]":1165,"[unused1162]":1166,"[unused1163]":1167,"[unused1164]":1168,"[unused1165]":1169,"[unused1166]":1170,"[unused1167]":1171,"[unused1168]":1172,"[unused1169]":1173,"[unused1170]":1174,"[unused1171]":1175,"[unused1172]":1176,"[unused1173]":1177,"[unused1174]":1178,"[unused1175]":1179,"[unused1176]":1180,"[unused1177]":1181,"[unused1178]":1182,"[unused1179]":1183,"[unused1180]":1184,"[unused1181]":1185,"[unused1182]":1186,"[unused1183]":1187,"[unused1184]":1188,"[unused1185]":1189,"[unused1186]":1190,"[unused1187]":1191,"[unused1188]":1192,"[unused1189]":1193,"[unused1190]":1194,"[unused1191]":1195,"[unused1192]":1196,"[unused1193]":1197,"[unused1194]":1198,"[unused1195]":1199,"[unused1196]":1200,"[unused1197]":1201,"[unused1198]":1202,"[unused1199]":1203,"[unused1200]":1204,"[unused1201]":1205,"[unused1202]":1206,"[unused1203]":1207,"[unused1204]":1208,"[unused1205]":1209,"[unused1206]":1210,"[unused1207]":1211,"[unused1208]":1212,"[unused1209]":1213,"[unused1210]":1214,"[unused1211]":1215,"[unused1212]":1216,"[unused1213]":1217,"[unused1214]":1218,"[unused1215]":1219,"[unused1216]":1220,"[unused1217]":1221,"[unused1218]":1222,"[unused1219]":1223,"[unused1220]":1224,"[unused1221]":1225,"[unused1222]":1226,"[unused1223]":1227,"[unused1224]":1228,"[unused1225]":1229,"[unused1226]":1230,"[unused1227]":1231,"[unused1228]":1232,"[unused1229]":1233,"[unused1230]":1234,"[unused1231]":1235,"[unused1232]":1236,"[unused1233]":1237,"[unused1234]":1238,"[unused1235]":1239,"[unused1236]":1240,"[unused1237]":1241,"[unused1238]":1242,"[unused1239]":1243,"[unused1240]":1244,"[unused1241]":1245,"[unused1242]":1246,"[unused1243]":1247,"[unused1244]":1248,"[unused1245]":1249,"[unused1246]":1250,"[unused1247]":1251,"[unused1248]":1252,"[unused1249]":1253,"[unused1250]":1254,"[unused1251]":1255,"[unused1252]":1256,"[unused1253]":1257,"[unused1254]":1258,"[unused1255]":1259,"[unused1256]":1260,"[unused1257]":1261,"[unused1258]":1262,"[unused1259]":1263,"[unused1260]":1264,"[unused1261]":1265,"[unused1262]":1266,"[unused1263]":1267,"[unused1264]":1268,"[unused1265]":1269,"[unused1266]":1270,"[unused1267]":1271,"[unused1268]":1272,"[unused1269]":1273,"[unused1270]":1274,"[unused1271]":1275,"[unused1272]":1276,"[unused1273]":1277,"[unused1274]":1278,"[unused1275]":1279,"[unused1276]":1280,"[unused1277]":1281,"[unused1278]":1282,"[unused1279]":1283,"[unused1280]":1284,"[unused1281]":1285,"[unused1282]":1286,"[unused1283]":1287,"[unused1284]":1288,"[unused1285]":1289,"[unused1286]":1290,"[unused1287]":1291,"[unused1288]":1292,"[unused1289]":1293,"[unused1290]":1294,"[unused1291]":1295,"[unused1292]":1296,"[unused1293]":1297,"[unused1294]":1298,"[unused1295]":1299,"[unused1296]":1300,"[unused1297]":1301,"[unused1298]":1302,"[unused1299]":1303,"[unused1300]":1304,"[unused1301]":1305,"[unused1302]":1306,"[unused1303]":1307,"[unused1304]":1308,"[unused1305]":1309,"[unused1306]":1310,"[unused1307]":1311,"[unused1308]":1312,"[unused1309]":1313,"[unused1310]":1314,"[unused1311]":1315,"[unused1312]":1316,"[unused1313]":1317,"[unused1314]":1318,"[unused1315]":1319,"[unused1316]":1320,"[unused1317]":1321,"[unused1318]":1322,"[unused1319]":1323,"[unused1320]":1324,"[unused1321]":1325,"[unused1322]":1326,"[unused1323]":1327,"[unused1324]":1328,"[unused1325]":1329,"[unused1326]":1330,"[unused1327]":1331,"[unused1328]":1332,"[unused1329]":1333,"[unused1330]":1334,"[unused1331]":1335,"[unused1332]":1336,"[unused1333]":1337,"[unused1334]":1338,"[unused1335]":1339,"[unused1336]":1340,"[unused1337]":1341,"[unused1338]":1342,"[unused1339]":1343,"[unused1340]":1344,"[unused1341]":1345,"[unused1342]":1346,"[unused1343]":1347,"[unused1344]":1348,"[unused1345]":1349,"[unused1346]":1350,"[unused1347]":1351,"[unused1348]":1352,"[unused1349]":1353,"[unused1350]":1354,"[unused1351]":1355,"[unused1352]":1356,"[unused1353]":1357,"[unused1354]":1358,"[unused1355]":1359,"[unused1356]":1360,"[unused1357]":1361,"[unused1358]":1362,"[unused1359]":1363,"[unused1360]":1364,"[unused1361]":1365,"[unused1362]":1366,"[unused1363]":1367,"[unused1364]":1368,"[unused1365]":1369,"[unused1366]":1370,"[unused1367]":1371,"[unused1368]":1372,"[unused1369]":1373,"[unused1370]":1374,"[unused1371]":1375,"[unused1372]":1376,"[unused1373]":1377,"[unused1374]":1378,"[unused1375]":1379,"[unused1376]":1380,"[unused1377]":1381,"[unused1378]":1382,"[unused1379]":1383,"[unused1380]":1384,"[unused1381]":1385,"[unused1382]":1386,"[unused1383]":1387,"[unused1384]":1388,"[unused1385]":1389,"[unused1386]":1390,"[unused1387]":1391,"[unused1388]":1392,"[unused1389]":1393,"[unused1390]":1394,"[unused1391]":1395,"[unused1392]":1396,"[unused1393]":1397,"[unused1394]":1398,"[unused1395]":1399,"[unused1396]":1400,"[unused1397]":1401,"[unused1398]":1402,"[unused1399]":1403,"[unused1400]":1404,"[unused1401]":1405,"[unused1402]":1406,"[unused1403]":1407,"[unused1404]":1408,"[unused1405]":1409,"[unused1406]":1410,"[unused1407]":1411,"[unused1408]":1412,"[unused1409]":1413,"[unused1410]":1414,"[unused1411]":1415,"[unused1412]":1416,"[unused1413]":1417,"[unused1414]":1418,"[unused1415]":1419,"[unused1416]":1420,"[unused1417]":1421,"[unused1418]":1422,"[unused1419]":1423,"[unused1420]":1424,"[unused1421]":1425,"[unused1422]":1426,"[unused1423]":1427,"[unused1424]":1428,"[unused1425]":1429,"[unused1426]":1430,"[unused1427]":1431,"[unused1428]":1432,"[unused1429]":1433,"[unused1430]":1434,"[unused1431]":1435,"[unused1432]":1436,"[unused1433]":1437,"[unused1434]":1438,"[unused1435]":1439,"[unused1436]":1440,"[unused1437]":1441,"[unused1438]":1442,"[unused1439]":1443,"[unused1440]":1444,"[unused1441]":1445,"[unused1442]":1446,"[unused1443]":1447,"[unused1444]":1448,"[unused1445]":1449,"[unused1446]":1450,"[unused1447]":1451,"[unused1448]":1452,"[unused1449]":1453,"[unused1450]":1454,"[unused1451]":1455,"[unused1452]":1456,"[unused1453]":1457,"[unused1454]":1458,"[unused1455]":1459,"[unused1456]":1460,"[unused1457]":1461,"[unused1458]":1462,"[unused1459]":1463,"[unused1460]":1464,"[unused1461]":1465,"[unused1462]":1466,"[unused1463]":1467,"[unused1464]":1468,"[unused1465]":1469,"[unused1466]":1470,"[unused1467]":1471,"[unused1468]":1472,"[unused1469]":1473,"[unused1470]":1474,"[unused1471]":1475,"[unused1472]":1476,"[unused1473]":1477,"[unused1474]":1478,"[unused1475]":1479,"[unused1476]":1480,"[unused1477]":1481,"[unused1478]":1482,"[unused1479]":1483,"[unused1480]":1484,"[unused1481]":1485,"[unused1482]":1486,"[unused1483]":1487,"[unused1484]":1488,"[unused1485]":1489,"[unused1486]":1490,"[unused1487]":1491,"[unused1488]":1492,"[unused1489]":1493,"[unused1490]":1494,"[unused1491]":1495,"[unused1492]":1496,"[unused1493]":1497,"[unused1494]":1498,"[unused1495]":1499,"[unused1496]":1500,"[unused1497]":1501,"[unused1498]":1502,"[unused1499]":1503,"[unused1500]":1504,"[unused1501]":1505,"[unused1502]":1506,"[unused1503]":1507,"[unused1504]":1508,"[unused1505]":1509,"[unused1506]":1510,"[unused1507]":1511,"[unused1508]":1512,"[unused1509]":1513,"[unused1510]":1514,"[unused1511]":1515,"[unused1512]":1516,"[unused1513]":1517,"[unused1514]":1518,"[unused1515]":1519,"[unused1516]":1520,"[unused1517]":1521,"[unused1518]":1522,"[unused1519]":1523,"[unused1520]":1524,"[unused1521]":1525,"[unused1522]":1526,"[unused1523]":1527,"[unused1524]":1528,"[unused1525]":1529,"[unused1526]":1530,"[unused1527]":1531,"[unused1528]":1532,"[unused1529]":1533,"[unused1530]":1534,"[unused1531]":1535,"[unused1532]":1536,"[unused1533]":1537,"[unused1534]":1538,"[unused1535]":1539,"[unused1536]":1540,"[unused1537]":1541,"[unused1538]":1542,"[unused1539]":1543,"[unused1540]":1544,"[unused1541]":1545,"[unused1542]":1546,"[unused1543]":1547,"[unused1544]":1548,"[unused1545]":1549,"[unused1546]":1550,"[unused1547]":1551,"[unused1548]":1552,"[unused1549]":1553,"[unused1550]":1554,"[unused1551]":1555,"[unused1552]":1556,"[unused1553]":1557,"[unused1554]":1558,"[unused1555]":1559,"[unused1556]":1560,"[unused1557]":1561,"[unused1558]":1562,"[unused1559]":1563,"[unused1560]":1564,"[unused1561]":1565,"[unused1562]":1566,"[unused1563]":1567,"[unused1564]":1568,"[unused1565]":1569,"[unused1566]":1570,"[unused1567]":1571,"[unused1568]":1572,"[unused1569]":1573,"[unused1570]":1574,"[unused1571]":1575,"[unused1572]":1576,"[unused1573]":1577,"[unused1574]":1578,"[unused1575]":1579,"[unused1576]":1580,"[unused1577]":1581,"[unused1578]":1582,"[unused1579]":1583,"[unused1580]":1584,"[unused1581]":1585,"[unused1582]":1586,"[unused1583]":1587,"[unused1584]":1588,"[unused1585]":1589,"[unused1586]":1590,"[unused1587]":1591,"[unused1588]":1592,"[unused1589]":1593,"[unused1590]":1594,"[unused1591]":1595,"[unused1592]":1596,"[unused1593]":1597,"[unused1594]":1598,"[unused1595]":1599,"[unused1596]":1600,"[unused1597]":1601,"[unused1598]":1602,"[unused1599]":1603,"[unused1600]":1604,"[unused1601]":1605,"[unused1602]":1606,"[unused1603]":1607,"[unused1604]":1608,"[unused1605]":1609,"[unused1606]":1610,"[unused1607]":1611,"[unused1608]":1612,"[unused1609]":1613,"[unused1610]":1614,"[unused1611]":1615,"[unused1612]":1616,"[unused1613]":1617,"[unused1614]":1618,"[unused1615]":1619,"[unused1616]":1620,"[unused1617]":1621,"[unused1618]":1622,"[unused1619]":1623,"[unused1620]":1624,"[unused1621]":1625,"[unused1622]":1626,"[unused1623]":1627,"[unused1624]":1628,"[unused1625]":1629,"[unused1626]":1630,"[unused1627]":1631,"[unused1628]":1632,"[unused1629]":1633,"[unused1630]":1634,"[unused1631]":1635,"[unused1632]":1636,"[unused1633]":1637,"[unused1634]":1638,"[unused1635]":1639,"[unused1636]":1640,"[unused1637]":1641,"[unused1638]":1642,"[unused1639]":1643,"[unused1640]":1644,"[unused1641]":1645,"[unused1642]":1646,"[unused1643]":1647,"[unused1644]":1648,"[unused1645]":1649,"[unused1646]":1650,"[unused1647]":1651,"[unused1648]":1652,"[unused1649]":1653,"[unused1650]":1654,"[unused1651]":1655,"[unused1652]":1656,"[unused1653]":1657,"[unused1654]":1658,"[unused1655]":1659,"[unused1656]":1660,"[unused1657]":1661,"[unused1658]":1662,"[unused1659]":1663,"[unused1660]":1664,"[unused1661]":1665,"[unused1662]":1666,"[unused1663]":1667,"[unused1664]":1668,"[unused1665]":1669,"[unused1666]":1670,"[unused1667]":1671,"[unused1668]":1672,"[unused1669]":1673,"[unused1670]":1674,"[unused1671]":1675,"[unused1672]":1676,"[unused1673]":1677,"[unused1674]":1678,"[unused1675]":1679,"[unused1676]":1680,"[unused1677]":1681,"[unused1678]":1682,"[unused1679]":1683,"[unused1680]":1684,"[unused1681]":1685,"[unused1682]":1686,"[unused1683]":1687,"[unused1684]":1688,"[unused1685]":1689,"[unused1686]":1690,"[unused1687]":1691,"[unused1688]":1692,"[unused1689]":1693,"[unused1690]":1694,"[unused1691]":1695,"[unused1692]":1696,"[unused1693]":1697,"[unused1694]":1698,"[unused1695]":1699,"[unused1696]":1700,"[unused1697]":1701,"[unused1698]":1702,"[unused1699]":1703,"[unused1700]":1704,"[unused1701]":1705,"[unused1702]":1706,"[unused1703]":1707,"[unused1704]":1708,"[unused1705]":1709,"[unused1706]":1710,"[unused1707]":1711,"[unused1708]":1712,"[unused1709]":1713,"[unused1710]":1714,"[unused1711]":1715,"[unused1712]":1716,"[unused1713]":1717,"[unused1714]":1718,"[unused1715]":1719,"[unused1716]":1720,"[unused1717]":1721,"[unused1718]":1722,"[unused1719]":1723,"[unused1720]":1724,"[unused1721]":1725,"[unused1722]":1726,"[unused1723]":1727,"[unused1724]":1728,"[unused1725]":1729,"[unused1726]":1730,"[unused1727]":1731,"[unused1728]":1732,"[unused1729]":1733,"[unused1730]":1734,"[unused1731]":1735,"[unused1732]":1736,"[unused1733]":1737,"[unused1734]":1738,"[unused1735]":1739,"[unused1736]":1740,"[unused1737]":1741,"[unused1738]":1742,"[unused1739]":1743,"[unused1740]":1744,"[unused1741]":1745,"[unused1742]":1746,"[unused1743]":1747,"[unused1744]":1748,"[unused1745]":1749,"[unused1746]":1750,"[unused1747]":1751,"[unused1748]":1752,"[unused1749]":1753,"[unused1750]":1754,"[unused1751]":1755,"[unused1752]":1756,"[unused1753]":1757,"[unused1754]":1758,"[unused1755]":1759,"[unused1756]":1760,"[unused1757]":1761,"[unused1758]":1762,"[unused1759]":1763,"[unused1760]":1764,"[unused1761]":1765,"[unused1762]":1766,"[unused1763]":1767,"[unused1764]":1768,"[unused1765]":1769,"[unused1766]":1770,"[unused1767]":1771,"[unused1768]":1772,"[unused1769]":1773,"[unused1770]":1774,"[unused1771]":1775,"[unused1772]":1776,"[unused1773]":1777,"[unused1774]":1778,"[unused1775]":1779,"[unused1776]":1780,"[unused1777]":1781,"[unused1778]":1782,"[unused1779]":1783,"[unused1780]":1784,"[unused1781]":1785,"[unused1782]":1786,"[unused1783]":1787,"[unused1784]":1788,"[unused1785]":1789,"[unused1786]":1790,"[unused1787]":1791,"[unused1788]":1792,"[unused1789]":1793,"[unused1790]":1794,"[unused1791]":1795,"[unused1792]":1796,"[unused1793]":1797,"[unused1794]":1798,"[unused1795]":1799,"[unused1796]":1800,"[unused1797]":1801,"[unused1798]":1802,"[unused1799]":1803,"[unused1800]":1804,"[unused1801]":1805,"[unused1802]":1806,"[unused1803]":1807,"[unused1804]":1808,"[unused1805]":1809,"[unused1806]":1810,"[unused1807]":1811,"[unused1808]":1812,"[unused1809]":1813,"[unused1810]":1814,"[unused1811]":1815,"[unused1812]":1816,"[unused1813]":1817,"[unused1814]":1818,"[unused1815]":1819,"[unused1816]":1820,"[unused1817]":1821,"[unused1818]":1822,"[unused1819]":1823,"[unused1820]":1824,"[unused1821]":1825,"[unused1822]":1826,"[unused1823]":1827,"[unused1824]":1828,"[unused1825]":1829,"[unused1826]":1830,"[unused1827]":1831,"[unused1828]":1832,"[unused1829]":1833,"[unused1830]":1834,"[unused1831]":1835,"[unused1832]":1836,"[unused1833]":1837,"[unused1834]":1838,"[unused1835]":1839,"[unused1836]":1840,"[unused1837]":1841,"[unused1838]":1842,"[unused1839]":1843,"[unused1840]":1844,"[unused1841]":1845,"[unused1842]":1846,"[unused1843]":1847,"[unused1844]":1848,"[unused1845]":1849,"[unused1846]":1850,"[unused1847]":1851,"[unused1848]":1852,"[unused1849]":1853,"[unused1850]":1854,"[unused1851]":1855,"[unused1852]":1856,"[unused1853]":1857,"[unused1854]":1858,"[unused1855]":1859,"[unused1856]":1860,"[unused1857]":1861,"[unused1858]":1862,"[unused1859]":1863,"[unused1860]":1864,"[unused1861]":1865,"[unused1862]":1866,"[unused1863]":1867,"[unused1864]":1868,"[unused1865]":1869,"[unused1866]":1870,"[unused1867]":1871,"[unused1868]":1872,"[unused1869]":1873,"[unused1870]":1874,"[unused1871]":1875,"[unused1872]":1876,"[unused1873]":1877,"[unused1874]":1878,"[unused1875]":1879,"[unused1876]":1880,"[unused1877]":1881,"[unused1878]":1882,"[unused1879]":1883,"[unused1880]":1884,"[unused1881]":1885,"[unused1882]":1886,"[unused1883]":1887,"[unused1884]":1888,"[unused1885]":1889,"[unused1886]":1890,"[unused1887]":1891,"[unused1888]":1892,"[unused1889]":1893,"[unused1890]":1894,"[unused1891]":1895,"[unused1892]":1896,"[unused1893]":1897,"[unused1894]":1898,"[unused1895]":1899,"[unused1896]":1900,"[unused1897]":1901,"[unused1898]":1902,"[unused1899]":1903,"[unused1900]":1904,"[unused1901]":1905,"[unused1902]":1906,"[unused1903]":1907,"[unused1904]":1908,"[unused1905]":1909,"[unused1906]":1910,"[unused1907]":1911,"[unused1908]":1912,"[unused1909]":1913,"[unused1910]":1914,"[unused1911]":1915,"[unused1912]":1916,"[unused1913]":1917,"[unused1914]":1918,"[unused1915]":1919,"[unused1916]":1920,"[unused1917]":1921,"[unused1918]":1922,"[unused1919]":1923,"[unused1920]":1924,"[unused1921]":1925,"[unused1922]":1926,"[unused1923]":1927,"[unused1924]":1928,"[unused1925]":1929,"[unused1926]":1930,"[unused1927]":1931,"[unused1928]":1932,"[unused1929]":1933,"[unused1930]":1934,"[unused1931]":1935,"[unused1932]":1936,"[unused1933]":1937,"[unused1934]":1938,"[unused1935]":1939,"[unused1936]":1940,"[unused1937]":1941,"[unused1938]":1942,"[unused1939]":1943,"[unused1940]":1944,"[unused1941]":1945,"[unused1942]":1946,"[unused1943]":1947,"[unused1944]":1948,"[unused1945]":1949,"[unused1946]":1950,"[unused1947]":1951,"[unused1948]":1952,"[unused1949]":1953,"[unused1950]":1954,"[unused1951]":1955,"[unused1952]":1956,"[unused1953]":1957,"[unused1954]":1958,"[unused1955]":1959,"[unused1956]":1960,"[unused1957]":1961,"[unused1958]":1962,"[unused1959]":1963,"[unused1960]":1964,"[unused1961]":1965,"[unused1962]":1966,"[unused1963]":1967,"[unused1964]":1968,"[unused1965]":1969,"[unused1966]":1970,"[unused1967]":1971,"[unused1968]":1972,"[unused1969]":1973,"[unused1970]":1974,"[unused1971]":1975,"[unused1972]":1976,"[unused1973]":1977,"[unused1974]":1978,"[unused1975]":1979,"[unused1976]":1980,"[unused1977]":1981,"[unused1978]":1982,"[unused1979]":1983,"[unused1980]":1984,"[unused1981]":1985,"[unused1982]":1986,"[unused1983]":1987,"[unused1984]":1988,"[unused1985]":1989,"[unused1986]":1990,"[unused1987]":1991,"[unused1988]":1992,"[unused1989]":1993,"[unused1990]":1994,"[unused1991]":1995,"[unused1992]":1996,"[unused1993]":1997,"[unused1994]":1998,"[unused1995]":1999,"[unused1996]":2000,"[unused1997]":2001,"[unused1998]":2002,"[unused1999]":2003,"[unused2000]":2004,"a":2005,"##sz":2006,"##el":2007,"##et":2008,"##en":2009,"m":2010,"##gy":2011,"k":2012,"##er":2013,"##at":2014,"##és":2015,"t":2016,"h":2017,"##an":2018,"##ek":2019,"##al":2020,"v":2021,"##em":2022,"##ás":2023,"##eg":2024,"##ál":2025,"sz":2026,"f":2027,"##ol":2028,"##in":2029,"##on":2030,"n":2031,"##ak":2032,"az":2033,"##es":2034,"##ár":2035,"##or":2036,"##ez":2037,"A":2038,"##is":2039,"##ok":2040,"##ny":2041,"l":2042,"##ér":2043,"##ég":2044,"és":2045,"b":2046,"##os":2047,"##tt":2048,"##ik":2049,"##ar":2050,"##egy":2051,"el":2052,"##cs":2053,"##ít":2054,"##át":2055,"##án":2056,"##ül":2057,"##oz":2058,"meg":2059,"s":2060,"##él":2061,"##bb":2062,"p":2063,"r":2064,"##ap":2065,"egy":2066,"##ogy":2067,"j":2068,"kö":2069,"##ed":2070,"##agy":2071,"##ett":2072,"is":2073,"##ét":2074,"##én":2075,"##ék":2076,"##il":2077,"##om":2078,"hogy":2079,"##ág":2080,"##ben":2081,"##ban":2082,"##it":2083,"##szt":2084,"##am":2085,"##ség":2086,"##ad":2087,"##nk":2088,"##int":2089,"d":2090,"##ott":2091,"M":2092,"nem":2093,"##ul":2094,"##og":2095,"##ni":2096,"##ól":2097,"##ép":2098,"i":2099,"##as":2100,"E":2101,"##ag":2102,"##ut":2103,"##ény":2104,"fel":2105,"##ész":2106,"##ja":2107,"##re":2108,"cs":2109,"##ra":2110,"##ely":2111,"K":2112,"S":2113,"ki":2114,"##het":2115,"##áll":2116,"1":2117,"##az":2118,"##aj":2119,"al":2120,"##iz":2121,"le":2122,"##ám":2123,"##ány":2124,"(":2125,"##ig":2126,"##nak":2127,"szer":2128,"##év":2129,"##ák":2130,"##ért":2131,"##ind":2132,"##ell":2133,"##ot":2134,"##ai":2135,"##ent":2136,"##end":2137,"##unk":2138,"##ör":2139,"##ált":2140,"am":2141,"2":2142,"köz":2143,"##ől":2144,"##hat":2145,"##nek":2146,"T":2147,"##ci":2148,"##od":2149,"ak":2150,"##us":2151,"##áz":2152,"ez":2153,"B":2154,"Az":2155,"H":2156,"##art":2157,"##olt":2158,"##ön":2159,"##szer":2160,"##ev":2161,"##ság":2162,"##ud":2163,"##ont":2164,"##uk":2165,"N":2166,"gy":2167,"g":2168,"##ej":2169,"##ük":2170,"##oly":2171,"I":2172,"mind":2173,"vagy":2174,"ú":2175,"##00":2176,"F":2177,"##ab":2178,"##esz":2179,"##ös":2180,"##öl":2181,"ha":2182,"ny":2183,"ter":2184,"##ír":2185,"P":2186,"c":2187,"##öz":2188,"##ert":2189,"val":2190,"##kez":2191,"ad":2192,"##atás":2193,"V":2194,"##ók":2195,"##alm":2196,"ér":2197,"Sz":2198,"##ta":2199,"##ond":2200,"##ep":2201,"##val":2202,"##ív":2203,"de":2204,"év":2205,"##ők":2206,"rend":2207,"##est":2208,"##ill":2209,"-":2210,"##olg":2211,"##ítás":2212,"##len":2213,"volt":2214,"##vet":2215,"##kor":2216,"leg":2217,"nagy":2218,"id":2219,"##ök":2220,"##ünk":2221,"##ezet":2222,"##éz":2223,"ut":2224,"##ában":2225,"##ább":2226,"van":2227,"elő":2228,"áll":2229,"##ály":2230,"##ött":2231,"##id":2232,"már":2233,"D":2234,"kell":2235,"tud":2236,"ker":2237,"##ve":2238,"jel":2239,"##ése":2240,"lehet":2241,"##ód":2242,"##orm":2243,"##áj":2244,"szám":2245,"L":2246,"##ba":2247,"C":2248,"##eket":2249,"##elő":2250,"##emb":2251,"G":2252,"##nál":2253,"##ov":2254,"##um":2255,"##elm":2256,"hely":2257,"##ur":2258,"##01":2259,"##ára":2260,"##att":2261,"##eszt":2262,"él":2263,"er":2264,"##ében":2265,"be":2266,"csak":2267,"##ület":2268,"##..":2269,"##okat":2270,"##av":2271,"##öbb":2272,"##iv":2273,"##ir":2274,"##ebb":2275,"##koz":2276,"es":2277,"##hoz":2278,"kap":2279,"##ció":2280,"R":2281,"##ély":2282,"még":2283,"J":2284,"##aszt":2285,"tör":2286,"pr":2287,"mag":2288,"tart":2289,"##ony":2290,"##agyar":2291,"–":2292,"##elt":2293,"##asz":2294,"minden":2295,"##mény":2296,"##ént":2297,"z":2298,"mint":2299,"##im":2300,"##dés":2301,"tel":2302,"más":2303,"fog":2304,"##ember":2305,"##össz":2306,"##ból":2307,"ig":2308,"##\":":2309,"##ős":2310,"##éd":2311,"##úl":2312,"##ható":2313,"ü":2314,"kép":2315,"biz":2316,"##ia":2317,"több":2318,"##isz":2319,"##,\"":2320,"##ült":2321,"szem":2322,"##öv":2323,"##eny":2324,"##old":2325,"##iszt":2326,"##ém":2327,"##ának":2328,"össz":2329,"mi":2330,"vég":2331,"##be":2332,"azt":2333,"##ési":2334,"##ása":2335,"##ató":2336,"##kal":2337,"Ez":2338,"##szág":2339,"##...":2340,"##zet":2341,"##obb":2342,"sem":2343,"kül":2344,"amely":2345,"##esen":2346,"##hez":2347,"3":2348,"##ének":2349,"##ink":2350,"alap":2351,"##ső":2352,"nap":2353,"##ére":2354,"ért":2355,"##ort":2356,"##ult":2357,"##op":2358,"át":2359,"##ajd":2360,"É":2361,"##ális":2362,"##let":2363,"##ző":2364,"rész":2365,"##ról":2366,"##enn":2367,"kez":2368,"##ást":2369,"tan":2370,"201":2371,"új":2372,"##ch":2373,"##fel":2374,"O":2375,"##yen":2376,"##ország":2377,"##va":2378,"##íz":2379,"##ei":2380,"##eh":2381,"##ján":2382,"munk":2383,"ar":2384,"##ob":2385,"##ín":2386,"##juk":2387,"mű":2388,"##and":2389,"##ozz":2390,"##árt":2391,"##ór":2392,"##kö":2393,"##ával":2394,"##leg":2395,"szerint":2396,"##étel":2397,"for":2398,"##ost":2399,"##atok":2400,"##ád":2401,"bel":2402,"##abb":2403,"u":2404,"oly":2405,"an":2406,"##ilyen":2407,"##áció":2408,"hat":2409,"##ós":2410,"tal":2411,"valam":2412,"##zés":2413,"eset":2414,"akkor":2415,"kör":2416,"##ót":2417,"Egy":2418,"##által":2419,"##ják":2420,"##ani":2421,"##st":2422,"követ":2423,"term":2424,"##ikus":2425,"han":2426,"##köz":2427,"##őr":2428,"##áros":2429,"vál":2430,"##hető":2431,"ill":2432,"olyan":2433,"in":2434,"##tet":2435,"##ások":2436,"sok":2437,"##nyi":2438,"##csol":2439,"##árs":2440,"##ított":2441,"í":2442,"hasz":2443,"##edig":2444,"##ilág":2445,"sor":2446,"kor":2447,"##almaz":2448,"jelent":2449,"##elés":2450,"##őt":2451,"##ug":2452,"lát":2453,"##vény":2454,"alk":2455,"kér":2456,"##ási":2457,"szak":2458,"##egész":2459,"##na":2460,"##ítés":2461,"után":2462,"##erm":2463,"kész":2464,"##eng":2465,"##tel":2466,"bizt":2467,"##mer":2468,"##ked":2469,"ép":2470,"kis":2471,"ember":2472,"##ovább":2473,"##eb":2474,"jog":2475,"##vez":2476,"##ölt":2477,"két":2478,"ok":2479,"tört":2480,"##áb":2481,"ami":2482,"mert":2483,"jó":2484,"vis":2485,"azon":2486,"által":2487,"##ről":2488,"így":2489,"pedig":2490,"fi":2491,"telj":2492,"ellen":2493,"##kel":2494,"foly":2495,"##ef":2496,"##őség":2497,"##pont":2498,"##kol":2499,"##ász":2500,"##ház":2501,"ah":2502,"##lt":2503,"„":2504,"##ével":2505,"19":2506,"érd":2507,"fej":2508,"magyar":2509,"lesz":2510,"##\",\"":2511,"##eti":2512,"külön":2513,"##any":2514,"4":2515,"##\":\"":2516,"##ből":2517,"szab":2518,"##ikor":2519,"##etlen":2520,"élet":2521,"##atos":2522,"mond":2523,"##emény":2524,"##ette":2525,"5":2526,"idő":2527,"##jt":2528,"##eni":2529,"mell":2530,"##ekt":2531,"Nem":2532,"majd":2533,"##ikai":2534,"##aság":2535,"hal":2536,"##öld":2537,"em":2538,"##nap":2539,"igaz":2540,"##lő":2541,"##árm":2542,"##ata":2543,"hozz":2544,"e":2545,"úgy":2546,"##ati":2547,"mely":2548,"egész":2549,"##ontos":2550,"##azd":2551,"##vezet":2552,"##lan":2553,"gond":2554,"##óg":2555,"##egít":2556,"kapcsol":2557,"ir":2558,"int":2559,"##je":2560,"\"":2561,"##óz":2562,"való":2563,"##kép":2564,"Á":2565,"Ha":2566,"##ki":2567,"##oszt":2568,"##ím":2569,"megt":2570,"##elem":2571,"st":2572,"nev":2573,"között":2574,"világ":2575,"##jel":2576,"##hely":2577,"##esség":2578,"##szerű":2579,"vált":2580,"tovább":2581,"##ként":2582,"##alom":2583,"##elet":2584,"##ormány":2585,"##ossz":2586,"illet":2587,"ír":2588,"történ":2589,"vissz":2590,"##gyan":2591,"##oldal":2592,"Ö":2593,"##ló":2594,"ö":2595,"min":2596,"##ést":2597,"első":2598,"##atkoz":2599,"##állal":2600,"##lal":2601,"biztos":2602,"nagyon":2603,"saj":2604,"##incs":2605,"##ozt":2606,"##sal":2607,"##ram":2608,"##kül":2609,"Z":2610,"##pr":2611,"mód":2612,"szolg":2613,"##ezt":2614,"##áv":2615,"##rend":2616,"kezd":2617,"##séges":2618,"##jük":2619,"##un":2620,"használ":2621,"##esít":2622,"##szak":2623,"talál":2624,"ezt":2625,"##kod":2626,"cél":2627,"##ers":2628,"men":2629,"Magyar":2630,"##ját":2631,"ol":2632,"##ezett":2633,"##ozott":2634,"személy":2635,"ját":2636,"te":2637,"U":2638,"segít":2639,"##atal":2640,"aki":2641,"##inek":2642,"szeret":2643,"##ób":2644,"##le":2645,"##ha":2646,"##ezés":2647,"##adás":2648,"érdek":2649,"##fog":2650,"##önt":2651,"tám":2652,"##ic":2653,"##ip":2654,"nek":2655,"##ió":2656,"##ing":2657,"ár":2658,"ered":2659,"##ező":2660,"##izs":2661,"##ító":2662,"##),":2663,"##omány":2664,"##SZ":2665,"##ord":2666,"##erek":2667,"vezet":2668,"##tam":2669,"##ogram":2670,"rendszer":2671,"most":2672,"en":2673,"##ter":2674,"von":2675,"##ivel":2676,"##akor":2677,"dolg":2678,"ugyan":2679,"##vas":2680,"fő":2681,"##ügy":2682,"##enek":2683,"szint":2684,"##tak":2685,"##áról":2686,"##ván":2687,"##óp":2688,"##0-":2689,"kom":2690,"egyik":2691,"##öm":2692,"6":2693,"##vel":2694,"##észet":2695,"##észt":2696,"##ozás":2697,"illetve":2698,"né":2699,"lak":2700,"##ács":2701,"##atlan":2702,"200":2703,"##form":2704,"hi":2705,"##fi":2706,"elm":2707,"##arad":2708,"érték":2709,"##lát":2710,"szük":2711,"##ög":2712,"cím":2713,"Cs":2714,"bet":2715,"besz":2716,"adat":2717,"ó":2718,"alatt":2719,"##ck":2720,"felt":2721,"##ütt":2722,"##izet":2723,"##elmi":2724,"##br":2725,"##hasz":2726,"rendel":2727,"##nyv":2728,"##se":2729,"##).":2730,"jelen":2731,"itt":2732,"ind":2733,"##lat":2734,"##0000":2735,"##ített":2736,"ott":2737,"##szám":2738,"per":2739,"kiv":2740,"##eli":2741,"akik":2742,"##ozó":2743,"hang":2744,"##nök":2745,"szól":2746,"valamint":2747,"ked":2748,"##vis":2749,"##izsg":2750,"##zel":2751,"##leszt":2752,"út":2753,"any":2754,"csal":2755,"##ából":2756,"##dő":2757,"##vány":2758,"##hu":2759,"lét":2760,"következ":2761,"##ába":2762,"##énz":2763,"ne":2764,"vár":2765,"##201":2766,"kon":2767,"társ":2768,"##ések":2769,"Köz":2770,"##enni":2771,"##gg":2772,"##fej":2773,"megfel":2774,"##osz":2775,"##enne":2776,"##of":2777,"szín":2778,"##eres":2779,"##AT":2780,"##ull":2781,"##tart":2782,"##űn":2783,"El":2784,"ügy":2785,"##élkül":2786,"##éb":2787,"amit":2788,"visz":2789,"sik":2790,"Gy":2791,"##utat":2792,"szerep":2793,"terület":2794,"##ün":2795,"##ran":2796,"8":2797,"##erg":2798,"##lap":2799,"##éld":2800,"ország":2801,"száz":2802,"##ass":2803,"W":2804,"##EL":2805,"rendelkez":2806,"##ermek":2807,"##pl":2808,"mér":2809,"arra":2810,"támog":2811,"ilyen":2812,"hanem":2813,"előtt":2814,"7":2815,"nincs":2816,"##tatás":2817,"##ekint":2818,"együtt":2819,"fél":2820,"oldal":2821,"##íj":2822,"##ekkel":2823,"üz":2824,"vállal":2825,"##.)":2826,"##alak":2827,"program":2828,"##udap":2829,"##enc":2830,"##zs":2831,"figy":2832,"saját":2833,"##uróp":2834,"##ánt":2835,"##udapest":2836,"miatt":2837,"##fél":2838,"foglal":2839,"##olna":2840,"##árom":2841,"mellett":2842,"##atot":2843,"választ":2844,"műkö":2845,"##használ":2846,"##ajt":2847,"##ormányz":2848,"hisz":2849,"##iai":2850,"amikor":2851,"kív":2852,"##tat":2853,"##állítás":2854,"család":2855,"Am":2856,"##azdaság":2857,"lehetőség":2858,"In":2859,"##ékeny":2860,"pont":2861,"ház":2862,"számára":2863,"##ekben":2864,"##almas":2865,"##1.":2866,"én":2867,"##jár":2868,"szolgált":2869,"ör":2870,"sp":2871,"##osan":2872,"Mind":2873,"tag":2874,"##ügg":2875,"határ":2876,"##véd":2877,"gondol":2878,"##ess":2879,"##fal":2880,"túl":2881,"##nél":2882,"alapján":2883,"##ium":2884,"##adó":2885,"##ülés":2886,"De":2887,"##pen":2888,"##usz":2889,"An":2890,"##te":2891,"nélkül":2892,"1.":2893,"ő":2894,"##ását":2895,"termék":2896,"ahol":2897,"jár":2898,"volna":2899,"##erseny":2900,"##ános":2901,"##újt":2902,"##omb":2903,"##ors":2904,"##ológ":2905,"har":2906,"10":2907,"jobb":2908,"##mű":2909,"##sége":2910,"azonban":2911,"igény":2912,"##út":2913,"##ant":2914,"tár":2915,"folyam":2916,"esz":2917,"##elv":2918,"pály":2919,"alkalmaz":2920,"költ":2921,"péld":2922,"##dig":2923,"##orv":2924,"##ája":2925,"##up":2926,"ismer":2927,"##áló":2928,"megfelelő":2929,"Meg":2930,"játék":2931,"aut":2932,"tanul":2933,"Mi":2934,"ór":2935,"jól":2936,"teljes":2937,"##ához":2938,"vesz":2939,"kev":2940,"##2.":2941,"közös":2942,"##iség":2943,"rá":2944,"törvény":2945,"##szín":2946,"ism":2947,"##ang":2948,"9":2949,"lett":2950,"##lás":2951,"pénz":2952,"##őket":2953,"##egyen":2954,"aján":2955,"##ET":2956,"tiszt":2957,"keres":2958,"##úz":2959,"néz":2960,"felad":2961,"Ist":2962,"ön":2963,"##sel":2964,"##ozat":2965,"csap":2966,"gyakor":2967,"##nkormányz":2968,"##okkal":2969,"hagy":2970,"eredmény":2971,"##eked":2972,"kar":2973,"##brand":2974,"##tól":2975,"Nagy":2976,"##ark":2977,"annak":2978,"##ták":2979,"elv":2980,"hét":2981,"gyermek":2982,"pár":2983,"intéz":2984,"dönt":2985,"##ika":2986,"ma":2987,"hatás":2988,"##amp":2989,"vissza":2990,"##ásár":2991,"város":2992,"##onság":2993,"##ően":2994,"##üt":2995,"kerül":2996,"nyil":2997,"bizony":2998,"##gel":2999,"##oda":3000,"során":3001,"##oll":3002,"eml":3003,"##tár":3004,"körny":3005,"Budapest":3006,"jav":3007,"##séget":3008,"tér":3009,"mindig":3010,"haz":3011,"##határ":3012,"##ne":3013,"##essz":3014,"kit":3015,"szabály":3016,"víz":3017,"##uszt":3018,"##ilm":3019,"szabad":3020,"##ern":3021,"##anak":3022,"fontos":3023,"olvas":3024,"##oport":3025,"növ":3026,"##átt":3027,"##hány":3028,"vizsg":3029,"irány":3030,"##2-":3031,"inform":3032,"Szer":3033,"##ER":3034,"azért":3035,"##ítani":3036,"##ri":3037,"marad":3038,"kötel":3039,"véd":3040,"##ac":3041,"##úly":3042,"##éről":3043,"azok":3044,"##all":3045,"##enged":3046,"nemzet":3047,"##assz":3048,"bev":3049,"##zett":3050,"Ú":3051,"##etek":3052,"##3.":3053,"hozzá":3054,"##8.":3055,"w":3056,"anyag":3057,"szó":3058,"##olit":3059,"akar":3060,"##öt":3061,"form":3062,"##ocs":3063,"megv":3064,"15":3065,"ed":3066,"elt":3067,"nyom":3068,"##ellem":3069,"##inak":3070,"siker":3071,"megjel":3072,"lép":3073,"kérdés":3074,"##íg":3075,"##nok":3076,"##ással":3077,"##érték":3078,"##ánk":3079,"semm":3080,"test":3081,"akár":3082,"##etem":3083,"szerző":3084,"esetén":3085,"##esebb":3086,"##ason":3087,"Magyarország":3088,"##ábor":3089,"##ciók":3090,"kereszt":3091,"szervezet":3092,"három":3093,"mill":3094,"alak":3095,"(1":3096,"##őv":3097,"##ür":3098,"##élet":3099,"##kész":3100,"##szön":3101,"##úr":3102,"##4.":3103,"megsz":3104,"##inkább":3105,"##osság":3106,"##ógy":3107,"természet":3108,"##eit":3109,"ford":3110,"beszél":3111,"##0.":3112,"##ökk":3113,"##ítása":3114,"vel":3115,"##evékeny":3116,"elég":3117,"bek":3118,"##zi":3119,"##chn":3120,"##ánd":3121,"##ügyi":3122,"##uló":3123,"##éhez":3124,"reg":3125,"rég":3126,"##hon":3127,"különb":3128,"##só":3129,"hossz":3130,"ezért":3131,"##ulajd":3132,"verseny":3133,"##nny":3134,"##telen":3135,"vonatkoz":3136,"##ennyi":3137,"##övet":3138,"gyerek":3139,"éves":3140,"hát":3141,"##lak":3142,"iskol":3143,"##isbrand":3144,"##false":3145,"##ásra":3146,"##1-":3147,"##ári":3148,"##őbb":3149,"nép":3150,"##ört":3151,"##ejt":3152,"##itel":3153,"##ségi":3154,"össze":3155,"bar":3156,"tekint":3157,"tesz":3158,"##tal":3159,"##foly":3160,"szolgáltatás":3161,"##alék":3162,"##eknek":3163,"fér":3164,"állam":3165,"##ex":3166,"##ői":3167,"##dik":3168,"hiszen":3169,"##ájék":3170,"##7-":3171,"##mány":3172,"##aton":3173,"másik":3174,"öt":3175,"egyéb":3176,"lev":3177,"##áp":3178,"##ma":3179,"zs":3180,"magas":3181,"vannak":3182,"##obl":3183,"##ául":3184,"Or":3185,"könny":3186,"haj":3187,"##atban":3188,"##artn":3189,"##mal":3190,"moz":3191,"##ését":3192,"##ka":3193,"##hogy":3194,"adott":3195,"##ru":3196,"##ec":3197,"##oh":3198,"##ációs":3199,"tevékeny":3200,"táv":3201,"##ször":3202,"##últ":3203,"##orr":3204,"egyes":3205,"hó":3206,"##ub":3207,"##anyag":3208,"##ist":3209,"ment":3210,"támogatás":3211,"##urópai":3212,"vél":3213,"##asztal":3214,"helyzet":3215,"szív":3216,"##leges":3217,"szép":3218,"##ségek":3219,"##ágy":3220,"##almi":3221,"##éter":3222,"##ítő":3223,"##EN":3224,"kut":3225,"hall":3226,"SZ":3227,"telep":3228,"##gt":3229,"elér":3230,"nyug":3231,"közel":3232,"##ment":3233,"körül":3234,"##szab":3235,"fejleszt":3236,"##6.":3237,"##enci":3238,"Er":3239,"megh":3240,"di":3241,"felhasznál":3242,"##acs":3243,"##ron":3244,"##okban":3245,"En":3246,"18":3247,"jöv":3248,"belül":3249,"##GY":3250,"##oblém":3251,"oszt":3252,"kí":3253,"##etés":3254,"könyv":3255,"megold":3256,"##mel":3257,"megy":3258,"##ábbi":3259,"##odik":3260,"##tem":3261,"ebb":3262,"milyen":3263,"##vétel":3264,"##ezni":3265,"##ismer":3266,"ezek":3267,"##ib":3268,"tény":3269,"munka":3270,"szóló":3271,"##új":3272,"meghatár":3273,"kics":3274,"egym":3275,"##után":3276,"##nos":3277,"##oj":3278,"par":3279,"##gató":3280,"részt":3281,":":3282,"##szik":3283,"viszont":3284,"cég":3285,"perc":3286,"beteg":3287,"##viselő":3288,"##ítja":3289,"szükséges":3290,"##nagy":3291,"##7.":3292,"##őz":3293,"##6-":3294,"##től":3295,"##mai":3296,"##5.":3297,"erős":3298,"##jon":3299,"##oló":3300,"foglalkoz":3301,"kedv":3302,"És":3303,"lenne":3304,"##ivatal":3305,"##azdasági":3306,"##tek":3307,"tap":3308,"##ulás":3309,"##ester":3310,"eszköz":3311,"jut":3312,"kés":3313,"##sze":3314,"##ájékozt":3315,"problém":3316,"érz":3317,"##sor":3318,"bej":3319,"tulajd":3320,"##eken":3321,"##mér":3322,"száll":3323,"##ion":3324,"függ":3325,"##org":3326,"##árd":3327,"##atív":3328,"##5-":3329,"##ogat":3330,"Al":3331,"##űr":3332,"##föld":3333,"nagyobb":3334,"vagyok":3335,"##ákat":3336,"##4-":3337,"abb":3338,"amelyek":3339,"##jobb":3340,"##3-":3341,"##óbb":3342,"##ene":3343,"nyelv":3344,"##iss":3345,"érint":3346,"film":3347,"egyszerű":3348,"hason":3349,"##ói":3350,"bem":3351,"évi":3352,"##nal":3353,"bárm":3354,"##ete":3355,"legyen":3356,"gyors":3357,"hír":3358,"Fel":3359,"##nő":3360,"föld":3361,"##álni":3362,"forint":3363,"##ettel":3364,"megáll":3365,"2.":3366,"##ékony":3367,"X":3368,"##ehát":3369,"néhány":3370,"került":3371,"##0000-":3372,"Ny":3373,"fogy":3374,"mod":3375,"megk":3376,"##ottság":3377,"##olás":3378,"enged":3379,"##nem":3380,"hónap":3381,"elem":3382,"nyújt":3383,"##onal":3384,"##csak":3385,"esetben":3386,"##ettek":3387,"##nev":3388,"mit":3389,"ide":3390,"##öző":3391,"Pr":3392,"lel":3393,"##íp":3394,"##ÁS":3395,"##lés":3396,"##üntet":3397,"##orvos":3398,"##gat":3399,"##olni":3400,"##jai":3401,"kialak":3402,"környezet":3403,"##emes":3404,"szeretn":3405,"százalék":3406,"0":3407,"megb":3408,"##lag":3409,"nyilván":3410,"##űz":3411,"##ülő":3412,"pályáz":3413,"inkább":3414,"bír":3415,"Í":3416,"é":3417,"##ari":3418,"##oci":3419,"##ver":3420,"##szolg":3421,"intézmény":3422,"##elked":3423,"műv":3424,"##elni":3425,"mutat":3426,"##ens":3427,"gyógy":3428,"forr":3429,"például":3430,"emlék":3431,"##apot":3432,"##izt":3433,"els":3434,"##ették":3435,"fenn":3436,"ellát":3437,"##ikk":3438,"##8-":3439,"köt":3440,"##ekre":3441,"bár":3442,"pl":3443,"##mus":3444,"##ésre":3445,"gép":3446,"legjobb":3447,"tervez":3448,"##zal":3449,"legal":3450,"polit":3451,"##émet":3452,"teljesít":3453,"##ock":3454,"igen":3455,"##lam":3456,"tárgy":3457,"##ept":3458,"##fizet":3459,"##ford":3460,"csökk":3461,"eljár":3462,"tartalmaz":3463,"##mag":3464,"##ÉS":3465,"feltétel":3466,"segítség":3467,"##övid":3468,"valami":3469,"##álat":3470,"##andó":3471,"kormány":3472,"##ettem":3473,"##ezte":3474,"fény":3475,"utc":3476,"ahogy":3477,"őket":3478,"ezzel":3479,"##ető":3480,"elfog":3481,"szerződés":3482,"közül":3483,"vásár":3484,"további":3485,"kr":3486,"csat":3487,"techn":3488,"##dött":3489,"négy":3490,"köszön":3491,"##közi":3492,"vas":3493,"fizet":3494,"létre":3495,"következő":3496,"harm":3497,"vonatkozó":3498,"##íts":3499,"szükség":3500,"szél":3501,"##oknak":3502,"##lik":3503,"##/201":3504,"Ön":3505,"##9.":3506,"fr":3507,"vezető":3508,"elnök":3509,"##ista":3510,"##díj":3511,"Ad":3512,"egyszer":3513,"##ébe":3514,"##ozni":3515,"ismert":3516,"##őleg":3517,"##esek":3518,"található":3519,"##ly":3520,"kl":3521,"##jegy":3522,"##hetetlen":3523,"Minden":3524,"fiatal":3525,"##talan":3526,"##II":3527,"ál":3528,"##ssz":3529,"##eteg":3530,"vid":3531,"##ank":3532,"##okon":3533,"társad":3534,"##AL":3535,"kil":3536,"##ehér":3537,"érkez":3538,"tem":3539,"##jában":3540,"im":3541,"##ón":3542,"dr":3543,"##osítás":3544,"tapasztal":3545,"##aki":3546,"##otta":3547,"##évő":3548,"szav":3549,"##álló":3550,"20":3551,"##heti":3552,"ennek":3553,"egyed":3554,"##jabb":3555,"##ációk":3556,"##ird":3557,"12":3558,"kívül":3559,"##féle":3560,"##ait":3561,"##EK":3562,"##tor":3563,"kir":3564,"##NY":3565,"idej":3566,"##etében":3567,"##ús":3568,"csoport":3569,"adatok":3570,"##ezz":3571,"energ":3572,"teljesen":3573,"Ak":3574,"neki":3575,",":3576,"újra":3577,"rossz":3578,"##ölcs":3579,"##űjt":3580,"##üz":3581,"##ozik":3582,"##akat":3583,"##nagyobb":3584,"tölt":3585,"##ásban":3586,"##elős":3587,"arról":3588,"##áját":3589,"##%-":3590,"második":3591,"##dése":3592,"##rel":3593,"voltak":3594,"Nemzet":3595,"##itk":3596,"annyi":3597,"##endő":3598,"##álaszt":3599,"##ong":3600,"tudom":3601,"##ory":3602,"##szor":3603,"utol":3604,"egyre":3605,"prób":3606,"##atosan":3607,"##iskol":3608,"szok":3609,"fal":3610,"Azt":3611,"legalább":3612,"##ics":3613,"mivel":3614,"készül":3615,"alkot":3616,"##9-":3617,"szervez":3618,"pontos":3619,"##za":3620,"jegy":3621,"ajánl":3622,"##efon":3623,"fut":3624,"“":3625,"##ípus":3626,"tulajdon":3627,"raj":3628,"akt":3629,"##emelt":3630,"kellett":3631,"##sági":3632,"helyi":3633,"##ie":3634,"##észeti":3635,"##etet":3636,"##ánc":3637,"##ottak":3638,"tém":3639,"eddig":3640,"/":3641,"II":3642,"díj":3643,"##200":3644,"óta":3645,"##gal":3646,"199":3647,"Már":3648,"mondta":3649,"##ke":3650,"##endég":3651,"minőség":3652,"erre":3653,"##OR":3654,"Ü":3655,"vállalkoz":3656,"##itás":3657,"Dr":3658,"##hagy":3659,"iz":3660,"##OS":3661,"kat":3662,"Ér":3663,"##rat":3664,"##ow":3665,"##álás":3666,"önkormányz":3667,"barát":3668,"##város":3669,"költség":3670,"figyelm":3671,"érdekében":3672,"biztonság":3673,"megjelen":3674,"Ig":3675,"##ih":3676,"##iac":3677,"##partn":3678,"##OL":3679,"fok":3680,"kik":3681,"játsz":3682,"##eget":3683,"hív":3684,"számít":3685,"ész":3686,"alá":3687,"épít":3688,"kifej":3689,"ezen":3690,"közép":3691,"##nep":3692,"kéz":3693,"nő":3694,"különböző":3695,"##adik":3696,"##he":3697,"##eztet":3698,"hiány":3699,"csapat":3700,"legnagyobb":3701,"tájékozt":3702,"mik":3703,"bal":3704,"találkoz":3705,"##adék":3706,"benne":3707,"##ft":3708,"##amar":3709,"##íl":3710,"##erül":3711,"##null":3712,"emberek":3713,"tet":3714,"szen":3715,"##arab":3716,"##meg":3717,"##ókat":3718,"##ÁL":3719,"fin":3720,"hon":3721,"tr":3722,"kult":3723,"kény":3724,"jellem":3725,"azzal":3726,"forg":3727,"válasz":3728,"##hív":3729,"##adott":3730,"neh":3731,"keresztül":3732,"##hatja":3733,"módon":3734,"gazd":3735,"3.":3736,"##ennyiben":3737,"##AR":3738,"##ff":3739,"tehát":3740,"##ózs":3741,"hasonló":3742,"##ilag":3743,"sport":3744,"[":3745,"##sér":3746,"szület":3747,"hogyan":3748,"készít":3749,"##adt":3750,"##erj":3751,"megállap":3752,"##utató":3753,"##ésére":3754,"éppen":3755,"vele":3756,"##akt":3757,"feladat":3758,"##okra":3759,"rövid":3760,"##la":3761,"ing":3762,"csin":3763,"című":3764,"Ar":3765,"##uh":3766,"történő":3767,"magát":3768,"férfi":3769,"állapot":3770,"baj":3771,"##szabály":3772,"##áig":3773,"lap":3774,"hosszú":3775,"##itt":3776,"személyes":3777,"##ította":3778,"##olog":3779,"##előtt":3780,"közvet":3781,"##ÁR":3782,"##cia":3783,"készült":3784,"egészség":3785,"Isten":3786,"##átor":3787,"##ományos":3788,"ber":3789,"St":3790,"##álja":3791,"web":3792,"est":3793,"rendez":3794,"ezer":3795,"ugyanis":3796,"tevékenység":3797,"változ":3798,"rendelet":3799,"##omag":3800,"##óval":3801,"szempont":3802,"kíván":3803,"##élt":3804,"##ázs":3805,"bor":3806,"##védelmi":3807,"##evő":3808,"megl":3809,"11":3810,"##enti":3811,"##embe":3812,"szül":3813,"szakmai":3814,"##igaz":3815,"később":3816,"##ine":3817,"##anu":3818,"bele":3819,"szemben":3820,"##né":3821,"##ságot":3822,"fogyaszt":3823,"##énk":3824,"semmi":3825,"##ekv":3826,"jelentős":3827,"ebben":3828,"erő":3829,"ci":3830,"felelős":3831,"Önkormányz":3832,"dél":3833,"##port":3834,"millió":3835,"##nnep":3836,"üzlet":3837,"##jét":3838,"Kö":3839,"##izmus":3840,"##mun":3841,"##log":3842,"legf":3843,"értelm":3844,"##ast":3845,"részlet":3846,"##ES":3847,"Ezt":3848,"##ard":3849,"##000":3850,"Ft":3851,"##ukat":3852,"##ilis":3853,"végre":3854,"jövő":3855,"##elj":3856,"Alap":3857,"adó":3858,"lény":3859,"se":3860,"##AN":3861,"fáj":3862,"maga":3863,"##jának":3864,"utolsó":3865,"##ecs":3866,"##műv":3867,"##ehet":3868,"##encs":3869,"vendég":3870,"épület":3871,"##ábban":3872,"##li":3873,"Is":3874,"##nyit":3875,"##dolg":3876,"##mond":3877,"bekez":3878,"Szent":3879,"mégis":3880,"cikk":3881,"&":3882,"##vonal":3883,"tudja":3884,"szinte":3885,"Ő":3886,"kicsit":3887,"Egyes":3888,"időszak":3889,"##ászló":3890,"##eink":3891,"összef":3892,"Bal":3893,"zen":3894,"sokkal":3895,"mindenki":3896,"konc":3897,"talán":3898,"##attal":3899,"jelenleg":3900,"##ítvány":3901,"##ann":3902,"##űt":3903,"javas":3904,"Hogy":3905,"##kör":3906,"felé":3907,"##uális":3908,"##uház":3909,"míg":3910,"óra":3911,"aztán":3912,"##nált":3913,"elekt":3914,"##esítés":3915,"érvény":3916,"##men":3917,"mérték":3918,"##ya":3919,"dok":3920,"nehéz":3921,"okt":3922,"lévő":3923,"ellenőr":3924,"##.”":3925,"##rendszer":3926,"ünnep":3927,"abban":3928,"##jából":3929,"á":3930,"kevés":3931,"##iszter":3932,"##ro":3933,"##Az":3934,"összeg":3935,"kisebb":3936,"Ál":3937,"mozg":3938,"##ojekt":3939,"##lődés":3940,"egyen":3941,"István":3942,"szöv":3943,"közt":3944,"##éklet":3945,"##akar":3946,"##EM":3947,"éve":3948,"##cius":3949,"esemény":3950,"##avar":3951,"része":3952,"##ON":3953,"közl":3954,"kiz":3955,"##//":3956,"let":3957,"##súly":3958,"##ítése":3959,"azonos":3960,"miért":3961,"##eség":3962,"helyett":3963,"Fer":3964,"##ttp":3965,"##mények":3966,"Szab":3967,"polg":3968,"##ulat":3969,"mot":3970,"különös":3971,"ap":3972,"esetében":3973,"célja":3974,"##éssel":3975,"Ki":3976,"##apcsol":3977,"##hajt":3978,"##szi":3979,"alábbi":3980,"##age":3981,"##://":3982,"##ódó":3983,"évben":3984,"osztály":3985,"felv":3986,"követően":3987,"tök":3988,"komoly":3989,"otthon":3990,"##írás":3991,"kapcsolatos":3992,"##elent":3993,"##több":3994,"##ológiai":3995,"##két":3996,"képviselő":3997,"Én":3998,"évek":3999,"##ED":4000,"használat":4001,"közben":4002,"név":4003,"14":4004,"##af":4005,"Em":4006,"Il":4007,"menny":4008,"hozzáj":4009,"dolog":4010,"##tan":4011,"rep":4012,"lem":4013,"vit":4014,"##elleg":4015,"érdemes":4016,"oda":4017,"##óta":4018,"op":4019,"##folyam":4020,"16":4021,"nemzetközi":4022,"süt":4023,"Kép":4024,"hol":4025,"...":4026,"vélemény":4027,"##fő":4028,"##elési":4029,"nekem":4030,"##óság":4031,"föl":4032,"##pal":4033,"gyárt":4034,"##ay":4035,"##test":4036,"Így":4037,"hoz":4038,"megrend":4039,"nyit":4040,"##ox":4041,"száma":4042,"##inc":4043,"re":4044,"pill":4045,"hazai":4046,"dí":4047,"##emt":4048,"##ah":4049,"##oc":4050,"##hatnak":4051,"##valós":4052,"##úra":4053,"zár":4054,"máj":4055,"##tunk":4056,"többi":4057,"orvos":4058,"Tan":4059,"##óber":4060,"bőr":4061,"mély":4062,"Elő":4063,"Tud":4064,"László":4065,"##alap":4066,"kezelés":4067,"folytat":4068,"##einek":4069,"##OK":4070,"##20":4071,"##ködés":4072,"##olja":4073,"##ására":4074,"##éből":4075,"tűn":4076,"működés":4077,"vér":4078,"##szint":4079,"##rom":4080,"gazdasági":4081,"stb":4082,"módszer":4083,"jobban":4084,"##anuár":4085,"##űv":4086,"ismét":4087,"persze":4088,"##ument":4089,"szoci":4090,"Ne":4091,"rem":4092,"Ennek":4093,"13":4094,"##őle":4095,"rög":4096,"##ozza":4097,"típus":4098,"##eptember":4099,"##ívül":4100,"##eged":4101,"kedvez":4102,"történt":4103,"##rész":4104,"##aut":4105,"And":4106,"##alk":4107,"##ától":4108,"##zése":4109,"##ook":4110,"##néz":4111,"átlag":4112,"##fejleszt":4113,"1-":4114,"##ünket":4115,"##nia":4116,"jogos":4117,"##per":4118,"segítségével":4119,"ható":4120,"megvalós":4121,"##sága":4122,"##de":4123,"elmúlt":4124,"jelentkez":4125,"álló":4126,"darab":4127,"elk":4128,"képes":4129,"##orban":4130,"súly":4131,"töm":4132,"4.":4133,"hivatal":4134,"##erő":4135,"##íteni":4136,"##szem":4137,"##AK":4138,"##rá":4139,"17":4140,"kapott":4141,"viszony":4142,"sikerült":4143,"##egyed":4144,"információ":4145,"látt":4146,"##színű":4147,"veszély":4148,"##unkat":4149,"##vár":4150,"régi":4151,"lég":4152,"valaki":4153,"##ikl":4154,"utaz":4155,"hib":4156,"##zési":4157,"##ezik":4158,"lényeg":4159,"30":4160,"##erikai":4161,"##ttal":4162,"##iget":4163,"##ítható":4164,"##nyire":4165,"tanács":4166,"##óri":4167,"##hetően":4168,"hitel":4169,"Csak":4170,"##kívül":4171,"##mert":4172,"jön":4173,"##álóz":4174,"##irt":4175,"ingatlan":4176,"##aval":4177,"mindent":4178,"Kr":4179,"##igy":4180,"kapcsolatban":4181,"jött":4182,"##ltal":4183,"or":4184,"megm":4185,"##ásával":4186,"projekt":4187,"jelleg":4188,"milli":4189,"##enes":4190,"központ":4191,"fot":4192,"benn":4193,"##üket":4194,"lány":4195,"pap":4196,"Európai":4197,"##óbbi":4198,"##alál":4199,"##érd":4200,"##par":4201,"számos":4202,"##hatatlan":4203,"##edett":4204,"##vezető":4205,"nov":4206,"##oha":4207,"##tatási":4208,"meghatározott":4209,"##beli":4210,"szerv":4211,"figyel":4212,"Ezek":4213,"mikor":4214,"előre":4215,"##íti":4216,"íz":4217,"mai":4218,"Zs":4219,"##ódik":4220,"##ileg":4221,"magam":4222,"##ándor":4223,"##omat":4224,"##AP":4225,"gyakorlat":4226,"egyetlen":4227,"##di":4228,"##hang":4229,"március":4230,"##akban":4231,"on":4232,"általános":4233,"##ius":4234,"Által":4235,"##éri":4236,"##etett":4237,"ideg":4238,"legtöbb":4239,"kam":4240,"(2":4241,"időt":4242,"##isztr":4243,"##IN":4244,"korábban":4245,"##....":4246,"##iről":4247,"engedély":4248,"##ásokat":4249,"biztosít":4250,"##utt":4251,"##öny":4252,"##prilis":4253,"##ársaság":4254,"##elen":4255,"Most":4256,"piac":4257,"##földi":4258,"telefon":4259,"##atási":4260,"tett":4261,"helyen":4262,"elkész":4263,"##elése":4264,"János":4265,"##ítási":4266,"újabb":4267,"dob":4268,"##ektet":4269,"talált":4270,"##19":4271,"egyetem":4272,"##jára":4273,"Kft":4274,"szob":4275,"##uz":4276,"##olc":4277,"január":4278,"##alt":4279,"század":4280,"##jön":4281,"##kr":4282,"összes":4283,"Város":4284,"poz":4285,"mer":4286,"##Sz":4287,"##iket":4288,"##enz":4289,"##áltató":4290,"##ármaz":4291,"##arc":4292,"azokat":4293,"ab":4294,"100":4295,"lenni":4296,"távol":4297,"mel":4298,"fehér":4299,"##idő":4300,"##--":4301,"történet":4302,"kezdő":4303,"csökkent":4304,"##da":4305,"arány":4306,"fenntart":4307,"##kalom":4308,"##áns":4309,"május":4310,"csomag":4311,"Nemzeti":4312,"kett":4313,"##uc":4314,"végén":4315,"##tim":4316,"friss":4317,"Magyarországon":4318,"Európ":4319,"##min":4320,"harmadik":4321,"##cont":4322,"elérhető":4323,"##testület":4324,"##EZ":4325,"Biz":4326,"##gyű":4327,"alkalom":4328,"szerinti":4329,"október":4330,"##hetnek":4331,"##elte":4332,"##ró":4333,"vagyunk":4334,"kínál":4335,"kapcsolat":4336,"irod":4337,"szöveg":4338,"##image":4339,"##10":4340,"szeptember":4341,"##hatunk":4342,"##fer":4343,"zöld":4344,"Ferenc":4345,"##ázat":4346,"Term":4347,"##sp":4348,"##kori":4349,"melyek":4350,"amerikai":4351,"amelyet":4352,"szintén":4353,"neve":4354,"##enger":4355,"##ásának":4356,"rom":4357,"##content":4358,"(1)":4359,"##oldog":4360,"##elek":4361,"tökélet":4362,"##ezése":4363,"##csi":4364,"hird":4365,"élő":4366,"halál":4367,"Új":4368,"##úgy":4369,"örök":4370,"Ol":4371,"##úcs":4372,"ÉS":4373,"##lenül":4374,"##oss":4375,"##agóg":4376,"információk":4377,"belső":4378,"éj":4379,"sen":4380,"elmond":4381,"##\":\"201":4382,"##mód":4383,"igazán":4384,"óv":4385,"##acsony":4386,"##gr":4387,"bűn":4388,"először":4389,"##50":4390,"bér":4391,"##nius":4392,"vez":4393,"##ármester":4394,"##cember":4395,"##edv":4396,"##story":4397,"használt":4398,"##ték":4399,"##isbrandcontent":4400,"ex":4401,"ról":4402,"király":4403,"ahhoz":4404,"Nagyon":4405,"##ÁN":4406,"##sh":4407,"arc":4408,"Még":4409,"##0000-0000-":4410,"napon":4411,"fogad":4412,"funk":4413,"cser":4414,"hull":4415,"német":4416,"kötelezett":4417,"elej":4418,"##akkor":4419,"kock":4420,"bekezdés":4421,"hozzájár":4422,"teszi":4423,"##únius":4424,"##ésével":4425,"##jed":4426,"##bizt":4427,"##!!":4428,"##avaly":4429,"európai":4430,"##tud":4431,"##eum":4432,"##utatás":4433,"##irág":4434,"##ÁG":4435,"küld":4436,"csod":4437,"##bben":4438,"dokument":4439,"ám":4440,"##örtén":4441,"##gész":4442,"nál":4443,"##olta":4444,"Y":4445,"##éni":4446,"##éve":4447,"##etes":4448,"honlap":4449,"származ":4450,"rendezvény":4451,"##hatjuk":4452,"pillan":4453,"kísér":4454,"emberi":4455,"tartott":4456,"Sok":4457,"szár":4458,"Val":4459,"ég":4460,"komp":4461,"##vált":4462,"##orn":4463,"párt":4464,"##álkod":4465,"azaz":4466,"##gol":4467,"Ország":4468,"közötti":4469,"##urális":4470,"fiz":4471,"##EG":4472,"csup":4473,"KÖ":4474,"április":4475,"##özben":4476,"november":4477,"tanulmány":4478,"##ái":4479,"##ail":4480,"##.\"":4481,"megbíz":4482,"##ésének":4483,"szor":4484,"##erült":4485,"kijel":4486,"Péter":4487,"tartalm":4488,"legy":4489,"mennyiség":4490,"ét":4491,"##36":4492,"##30":4493,"hatékony":4494,"okoz":4495,"elfogad":4496,"##ebru":4497,"látható":4498,"##lev":4499,"##árólag":4500,"##edagóg":4501,"keretében":4502,"##lék":4503,"támogat":4504,"##érium":4505,"##zat":4506,"kb":4507,"képvis":4508,"##TI":4509,"5.":4510,"Szak":4511,"terv":4512,"§":4513,"##usztus":4514,"Van":4515,"Általános":4516,"Tovább":4517,"Int":4518,"Józs":4519,"gyűjt":4520,"##fér":4521,"végig":4522,"nyilatkoz":4523,"##üv":4524,"elh":4525,"sokat":4526,"miniszter":4527,"jogszabály":4528,"Egyetem":4529,"##vég":4530,"intern":4531,"növény":4532,"azonnal":4533,"Itt":4534,"megfelelően":4535,"idén":4536,"annyira":4537,"##eci":4538,"terh":4539,"indul":4540,"autó":4541,"számú":4542,"##keres":4543,"tehet":4544,"##ontosabb":4545,"felf":4546,"##prób":4547,"##ÉG":4548,"##akran":4549,"##var":4550,"##ved":4551,"Ch":4552,"hid":4553,"végzett":4554,"##vg":4555,"##zék":4556,"december":4557,"korábbi":4558,"##ílus":4559,"##IS":4560,"##junk":4561,"eltér":4562,"általában":4563,"##ősorban":4564,"##-,":4565,"ellenére":4566,"élmény":4567,"részére":4568,"bef":4569,"##ruk":4570,"győz":4571,"Nap":4572,"##osabb":4573,"eszközök":4574,".":4575,"##rec":4576,"munkav":4577,"##keszt":4578,"##ezi":4579,"vizsgál":4580,"őr":4581,"akart":4582,"akad":4583,"##80":4584,"továbbá":4585,"##inket":4586,"##őzés":4587,"##munik":4588,"##line":4589,"felső":4590,"##raj":4591,"társaság":4592,"##ebruár":4593,"vide":4594,"jellemző":4595,"##erős":4596,"lakás":4597,"##nan":4598,"##ipt":4599,"bizonyos":4600,"EU":4601,"##iát":4602,"##részt":4603,"pan":4604,"addig":4605,"##zik":4606,"Amennyiben":4607,"##-4":4608,"##óra":4609,"##ugusztus":4610,"rendkívül":4611,"tűz":4612,"település":4613,"Te":4614,"Per":4615,"Kül":4616,"##vagy":4617,"Mar":4618,"Rend":4619,"Szolg":4620,"##enet":4621,"##ere":4622,"##oztat":4623,"##AI":4624,"amelynek":4625,"##eset":4626,"fest":4627,"##jen":4628,"milliárd":4629,"lass":4630,"csatlak":4631,"kellene":4632,"József":4633,"hő":4634,"tenni":4635,"igy":4636,"##rt":4637,"##90":4638,"öröm":4639,"korlát":4640,"Amikor":4641,"##ekkor":4642,"##csoport":4643,"dolgoz":4644,"tényleg":4645,"gar":4646,"##zők":4647,"kizárólag":4648,"természetes":4649,"folyamatosan":4650,"vett":4651,"diák":4652,"##etű":4653,"##plom":4654,"##ttól":4655,"modell":4656,"június":4657,"##55":4658,"Ma":4659,"##zó":4660,"bejelent":4661,"megny":4662,"ur":4663,"##forr":4664,"sőt":4665,"##álkoz":4666,"vegy":4667,"időpont":4668,"ell":4669,"keresked":4670,"negyed":4671,"##kezd":4672,"##ógép":4673,"##ozása":4674,"múlt":4675,"politikai":4676,"teljesítmény":4677,":)":4678,"esetleg":4679,"éd":4680,"vill":4681,"igazi":4682,"tudjuk":4683,"szavaz":4684,"kid":4685,"##omás":4686,"##intéz":4687,"nyert":4688,"rek":4689,"##son":4690,"bőv":4691,"##nőtt":4692,"történik":4693,"##engeteg":4694,"mög":4695,"##ségét":4696,"kutatás":4697,"##úsz":4698,"alkalmas":4699,"##ener":4700,"Ugyan":4701,"##hvg":4702,"közep":4703,"Kar":4704,"megelő":4705,"hatály":4706,"egymás":4707,"gyógyszer":4708,"##úlius":4709,"független":4710,"##írt":4711,"kin":4712,"##rancia":4713,"köszönhetően":4714,"##ivál":4715,"kateg":4716,"ezeket":4717,"br":4718,"##ekről":4719,"##ung":4720,"mos":4721,"társadalmi":4722,"##,5":4723,"##üm":4724,"láb":4725,"tur":4726,"##napi":4727,"együttmű":4728,"##mi":4729,"bank":4730,"##értelm":4731,"##ral":4732,"érintett":4733,"csupán":4734,"nemcsak":4735,"##ga":4736,"##tra":4737,"##íció":4738,"Önkormányzat":4739,"Bár":4740,"legfontosabb":4741,"##követ":4742,"kal":4743,"##ismert":4744,"mes":4745,"##emet":4746,"##fr":4747,"működ":4748,"visszat":4749,"Több":4750,"szent":4751,"##ÉK":4752,"finom":4753,"tagja":4754,"##http":4755,"Min":4756,"utóbbi":4757,"##ója":4758,"kárt":4759,"rendelkezik":4760,"##séggel":4761,"kiad":4762,"##országi":4763,"##tag":4764,"##gyel":4765,"ül":4766,"jelenti":4767,"##őként":4768,"közleked":4769,"Ó":4770,"szolgál":4771,"##ánál":4772,"fájd":4773,"##ker":4774,"##egény":4775,"hasznos":4776,"végül":4777,"eljárás":4778,"##dal":4779,"kiváló":4780,"##fok":4781,"##éseket":4782,"##osok":4783,"##sem":4784,"egészen":4785,"különösen":4786,"gomb":4787,"##ogatás":4788,"##ájában":4789,"hit":4790,"##nék":4791,"##faj":4792,"egyedül":4793,"jogosult":4794,"sajt":4795,"szellem":4796,"##képpen":4797,"##ázis":4798,"tavaly":4799,"boldog":4800,"Kis":4801,"##mail":4802,"kiegész":4803,"##adásul":4804,"##vá":4805,"fed":4806,"angol":4807,"felett":4808,"rak":4809,"##ust":4810,"képest":4811,"seb":4812,"had":4813,"##aként":4814,"##ították":4815,"koll":4816,"hamar":4817,"helyszín":4818,"##osztály":4819,"stílus":4820,"##obil":4821,"adatkez":4822,"védelm":4823,"területén":4824,"szerencs":4825,"##lott":4826,"##ítva":4827,"tíz":4828,"##ancs":4829,"Mag":4830,"Igaz":4831,"múl":4832,"sorozat":4833,"##dék":4834,"elektron":4835,"vet":4836,"rendőr":4837,"ver":4838,"beszélg":4839,"mintha":4840,"ének":4841,"mindenk":4842,"##des":4843,"50":4844,"előny":4845,"megszer":4846,"hiv":4847,"##encia":4848,"munkat":4849,"családi":4850,"járt":4851,"vág":4852,"módos":4853,"Iskol":4854,"ülés":4855,"készülék":4856,"max":4857,"##vizsg":4858,"gyakran":4859,"##vit":4860,"venni":4861,"képzés":4862,"Mivel":4863,"alacsony":4864,"képesség":4865,"##OM":4866,"február":4867,"##jú":4868,"##if":4869,"##eztem":4870,"##ized":4871,"gondolkod":4872,"##hatók":4873,"Br":4874,"AZ":4875,"Megy":4876,"##ésben":4877,"##világ":4878,"ők":4879,"##illag":4880,"megvált":4881,"##öd":4882,"##sa":4883,"nyí":4884,"különleges":4885,"növeked":4886,"lelk":4887,"##/200":4888,"üzem":4889,"eredeti":4890,"##ce":4891,"hatalmas":4892,"egyébként":4893,"##bev":4894,"ingy":4895,"valószínű":4896,"##állás":4897,"##itív":4898,"##úg":4899,"áld":4900,"rögz":4901,"25":4902,"sér":4903,"##ekete":4904,"fordul":4905,"hátt":4906,"##áború":4907,"alapvet":4908,"vágy":4909,"elkép":4910,"lehetett":4911,"kór":4912,"többet":4913,"##aliz":4914,"tév":4915,"##nie":4916,"legk":4917,"önmag":4918,"vad":4919,"##rány":4920,"##nként":4921,"##arm":4922,"##ÍT":4923,"kevesebb":4924,"##étől":4925,"könnyen":4926,"##lét":4927,"##ölgy":4928,"nehez":4929,"elsősorban":4930,"Leg":4931,"##ork":4932,"EL":4933,"##ainak":4934,"természetesen":4935,"##óm":4936,"elhely":4937,"szék":4938,"##házi":4939,"##szaki":4940,"##elnök":4941,"##odás":4942,"##óban":4943,"írás":4944,"##ellett":4945,"##közel":4946,"Uni":4947,"lab":4948,"ős":4949,"apr":4950,"augusztus":4951,"hálóz":4952,"6.":4953,"épp":4954,"##úzeum":4955,"##már":4956,"##ítette":4957,"##ezték":4958,"igazgató":4959,"alkalommal":4960,"##fa":4961,"mar":4962,"##éli":4963,"vagyis":4964,"##III":4965,"szakember":4966,"##73":4967,"##átum":4968,"folyamat":4969,"ev":4970,"##ológia":4971,"környék":4972,"Intéz":4973,"kár":4974,"weboldal":4975,"##ÉR":4976,"##pár":4977,"Bizottság":4978,"gyakorl":4979,"##ente":4980,"##ővé":4981,"med":4982,"at":4983,"##rás":4984,"##12":4985,"ref":4986,"fejlődés":4987,"ötlet":4988,"##attint":4989,"##elyik":4990,"##tuk":4991,"##lex":4992,"szenved":4993,"##őd":4994,"meglep":4995,"július":4996,"alig":4997,"##zetes":4998,"harc":4999,"##nyal":5000,"melynek":5001,"kérd":5002,"##elmény":5003,"##oft":5004,"##ber":5005,"##63":5006,"##gazd":5007,"##áért":5008,"##almat":5009,"egyet":5010,"##oltam":5011,"kötelező":5012,"soha":5013,"szór":5014,"iránt":5015,"kiállítás":5016,"külső":5017,"állami":5018,"évvel":5019,"##vi":5020,"##orú":5021,"magán":5022,"##etben":5023,"kert":5024,"közé":5025,"##külön":5026,"til":5027,"##vállal":5028,"Mert":5029,"Állam":5030,"Képviselő":5031,"##lám":5032,"##ocsát":5033,"költségvet":5034,"##ítják":5035,"##örgy":5036,"felület":5037,"Le":5038,"meleg":5039,"##ónak":5040,"##15":5041,"felül":5042,"##abban":5043,"valóban":5044,"Vagy":5045,"##hess":5046,"##db":5047,"Ezen":5048,"##általán":5049,"Kér":5050,"időben":5051,"mező":5052,"##övetség":5053,"##tr":5054,"áb":5055,"##”,":5056,"##höz":5057,"Mint":5058,"Bar":5059,"##usok":5060,"szom":5061,"Központ":5062,"##imp":5063,"előadás":5064,"minős":5065,"dokumentum":5066,"##örös":5067,"cuk":5068,"lehetséges":5069,"##áltatás":5070,"##ebben":5071,"##ője":5072,"##.,":5073,"iskola":5074,"##éig":5075,"Ter":5076,"megismer":5077,"##AS":5078,"regisztr":5079,"##ódott":5080,"kont":5081,"prof":5082,"##tató":5083,"##zott":5084,"##abil":5085,"katon":5086,"tav":5087,"##atait":5088,"##ású":5089,"szociális":5090,"összefügg":5091,"leír":5092,"##aink":5093,"ideje":5094,"##hol":5095,"jogi":5096,"kelet":5097,"tömeg":5098,"##oba":5099,"társadalom":5100,"megjelent":5101,"##hetjük":5102,"kommunik":5103,"nemzeti":5104,"Gábor":5105,"(2)":5106,"##ápl":5107,"Úgy":5108,"##lép":5109,"viz":5110,"speci":5111,"##gép":5112,"pénzügyi":5113,"##jog":5114,"küz":5115,"##tartás":5116,"gazdaság":5117,"gazdag":5118,"utas":5119,"##terület":5120,"##OZ":5121,"gyorsan":5122,"felnőtt":5123,"kedvenc":5124,"táb":5125,"##gond":5126,"hom":5127,"ném":5128,"Szám":5129,"##víz":5130,"teszt":5131,"energia":5132,"utca":5133,"létrehoz":5134,"partn":5135,"##entr":5136,"Ezért":5137,"ajándék":5138,"##ná":5139,"##esztivál":5140,"##embert":5141,"végrehajt":5142,"##álta":5143,"##ina":5144,"napi":5145,"##gazdasági":5146,"készített":5147,"rengeteg":5148,"állás":5149,"voltam":5150,"norm":5151,"##köt":5152,"##szich":5153,"beny":5154,"fegy":5155,"Kár":5156,"##janak":5157,"##omp":5158,"aszt":5159,"melyet":5160,"agy":5161,"##felé":5162,"minél":5163,"zaj":5164,"utal":5165,"gyerekek":5166,"##elmes":5167,"##ződés":5168,"templom":5169,"egyszerűen":5170,"tudni":5171,"oldalon":5172,"született":5173,"##cr":5174,"##ákkal":5175,"befoly":5176,"(3":5177,"inn":5178,"Egyesület":5179,"róla":5180,"rendelkező":5181,"kul":5182,"##;&":5183,"##bán":5184,"Saj":5185,"minim":5186,"für":5187,"köny":5188,"##ven":5189,"szakasz":5190,"##ottam":5191,"pontosan":5192,"köl":5193,"##veszt":5194,"bék":5195,"2018.":5196,"szereplő":5197,"##élyes":5198,"felk":5199,"adatokat":5200,"##ándék":5201,"szét":5202,"Jéz":5203,"##ólag":5204,"##ságát":5205,"előző":5206,"virág":5207,"kezdemény":5208,"szerintem":5209,"##ikat":5210,"eh":5211,"##aim":5212,"##jeszt":5213,"tün":5214,"198":5215,"indult":5216,"Vég":5217,"lakosság":5218,"##ikusan":5219,"elején":5220,"##urg":5221,"##lov":5222,"##”.":5223,"##érkez":5224,"kiválaszt":5225,"##18":5226,"##SÉG":5227,"+":5228,"##elep":5229,"##eként":5230,"##ily":5231,"##játék":5232,"##okból":5233,"években":5234,"##ratég":5235,"húz":5236,"arany":5237,"kín":5238,"megoldás":5239,"##könyv":5240,"kib":5241,"lehetőséget":5242,"tette":5243,"akinek":5244,"hangsúly":5245,"##pad":5246,"tor":5247,"##ácsony":5248,"Sándor":5249,"orosz":5250,"este":5251,"Zolt":5252,"sokan":5253,"étel":5254,"##CS":5255,"##egr":5256,"##üsz":5257,"Megyei":5258,"elvég":5259,"faj":5260,"ít":5261,"##ümölcs":5262,"várható":5263,"##adni":5264,"alkalm":5265,"##ula":5266,"Más":5267,"Im":5268,"valós":5269,"módosítás":5270,"##eznek":5271,"amíg":5272,"##ották":5273,"motor":5274,"##égy":5275,"beszám":5276,"állat":5277,"uni":5278,"##éj":5279,"egymást":5280,"part":5281,"##VI":5282,"összet":5283,"megtalál":5284,"egyáltalán":5285,"senki":5286,"##hetünk":5287,"##ájuk":5288,"##able":5289,"##ateg":5290,"működik":5291,"állandó":5292,"megért":5293,"##hi":5294,"intézked":5295,"igyek":5296,"édes":5297,"rajta":5298,"##esül":5299,"##építés":5300,"egyedi":5301,"mögött":5302,"lehetővé":5303,"maguk":5304,"tartozó":5305,"##ese":5306,"szállítás":5307,"Ilyen":5308,"Persze":5309,"résztv":5310,"Országos":5311,"úton":5312,"##ötét":5313,"befektet":5314,"őt":5315,"sokszor":5316,"##izen":5317,"24":5318,"maradt":5319,"of":5320,"##ila":5321,"##AM":5322,"##lőd":5323,"sajnos":5324,"minket":5325,"rag":5326,"##ajnok":5327,"Tam":5328,"##zás":5329,"továbbra":5330,"önkormányzat":5331,"##elve":5332,"##ogató":5333,"##övetkez":5334,"##űk":5335,"##száz":5336,"##forg":5337,"##zést":5338,"oktatás":5339,"mindegy":5340,"##lett":5341,"##jával":5342,"port":5343,"tenger":5344,"##szék":5345,"##emben":5346,"egyéni":5347,"##ítására":5348,"##besz":5349,"##elnek":5350,"becs":5351,"leveg":5352,"külföldi":5353,"##óknak":5354,"##SZT":5355,"észre":5356,"hajt":5357,"*":5358,"kapcsolódó":5359,"##io":5360,"számítógép":5361,"Fő":5362,")":5363,"##oskod":5364,"Zoltán":5365,"##ame":5366,"##aba":5367,"betegség":5368,"munkatárs":5369,"##fordul":5370,"##tized":5371,"##artam":5372,"ist":5373,"teremt":5374,"##emelked":5375,"##hass":5376,"tanár":5377,"##ezzük":5378,"Jó":5379,"felvétel":5380,"éjszak":5381,"reggel":5382,"közösségi":5383,"##atott":5384,"##olvas":5385,"##ármű":5386,"Jézus":5387,"Két":5388,"Német":5389,"kategóri":5390,"##bé":5391,"##ektől":5392,"##önyör":5393,"ehhez":5394,"pályázat":5395,"magad":5396,"##sért":5397,"Ebben":5398,"mintegy":5399,"belőle":5400,"##gyűlés":5401,"##.-":5402,"##sé":5403,"##ax":5404,"esély":5405,"##ítását":5406,"kony":5407,"György":5408,"##CI":5409,"##iás":5410,"Tiszt":5411,"##okról":5412,"kerület":5413,"var":5414,"Hivatal":5415,"##igit":5416,"feladatok":5417,"##azon":5418,"hozzájárul":5419,"elnöke":5420,"melléklet":5421,"eg":5422,"Föld":5423,"##van":5424,"Érd":5425,"maxim":5426,"##alma":5427,"##ead":5428,"##elmet":5429,"szerkez":5430,"##2-4":5431,"str":5432,"##vil":5433,"Kriszt":5434,"##ton":5435,"##ítást":5436,"elj":5437,"bajnok":5438,"##lom":5439,"Sp":5440,"érdekes":5441,"méd":5442,"km":5443,"figyelembe":5444,"##anap":5445,"met":5446,"eleg":5447,"Köszön":5448,"változás":5449,"egyértelm":5450,"seg":5451,"##eleti":5452,"##omra":5453,"##eccs":5454,"Természet":5455,"krit":5456,"##ozási":5457,"nők":5458,"##ájának":5459,"felkész":5460,"##cion":5461,"##issz":5462,"polgármester":5463,"level":5464,"emelked":5465,"hallgat":5466,"napja":5467,"népszerű":5468,"nyolc":5469,"gyeng":5470,"szakért":5471,"##ajos":5472,"##isztérium":5473,"ellent":5474,"##irány":5475,"szinten":5476,"elők":5477,"Tör":5478,"csinál":5479,"##éért":5480,"Zrt":5481,"kedves":5482,"##aránt":5483,"hagyomány":5484,"indok":5485,"mester":5486,"##irat":5487,"kiemelt":5488,"kattint":5489,"40":5490,"mut":5491,"gör":5492,"Kor":5493,"##elést":5494,"vezér":5495,"vagyon":5496,"Ed":5497,"nyer":5498,"többször":5499,"##őben":5500,"hegy":5501,"termékek":5502,"idegen":5503,"tartozik":5504,"közön":5505,"2015.":5506,"látni":5507,"dal":5508,"##ajon":5509,"##áni":5510,"felúj":5511,"##árnap":5512,"dem":5513,"előbb":5514,"gyümölcs":5515,"het":5516,"##elők":5517,"##ékes":5518,"##21":5519,"##polit":5520,"##ezhető":5521,"##TT":5522,"kölcs":5523,"7.":5524,"üzleti":5525,"##tern":5526,"##003":5527,"erd":5528,"mobil":5529,"játékos":5530,"##elik":5531,"##kos":5532,"hagyományos":5533,"zavar":5534,"##asp":5535,"##onban":5536,"##yw":5537,"attól":5538,"##ogatott":5539,"##met":5540,"##ozta":5541,"##25":5542,"##irtok":5543,"tápl":5544,"Id":5545,"miközben":5546,"##lok":5547,"energi":5548,"részét":5549,"nekik":5550,"Ir":5551,"KÖZ":5552,"elektronikus":5553,"ugy":5554,"évtized":5555,"##index":5556,"Európa":5557,"üv":5558,"2013.":5559,"##elhető":5560,"közösség":5561,"pedagóg":5562,"együttműködés":5563,"tökéletes":5564,"egyaránt":5565,"##ológi":5566,"önálló":5567,"##hor":5568,"Ezzel":5569,"2-":5570,"hatóság":5571,"##ilván":5572,"pént":5573,"##álisan":5574,"döntés":5575,"##isták":5576,"##ansz":5577,"##munk":5578,"##40":5579,"Hat":5580,"8.":5581,"nekünk":5582,"##hetik":5583,"online":5584,"koncert":5585,"##eztek":5586,"fogja":5587,"##erc":5588,"##ode":5589,"berend":5590,"kötött":5591,"pozitív":5592,"kisz":5593,"sikeres":5594,"látvány":5595,"##dv":5596,"valamit":5597,"##jebb":5598,"##atart":5599,"bemutat":5600,"elkezd":5601,"##ack":5602,"##.:":5603,"állt":5604,"##önyv":5605,"##õl":5606,"leginkább":5607,"szomb":5608,"titk":5609,"Mit":5610,"##etni":5611,"elleni":5612,"##idesz":5613,"mondja":5614,"követő":5615,"vizsgálat":5616,"Att":5617,"##cript":5618,"##\",":5619,"jutott":5620,"gáz":5621,"hord":5622,"tárgyal":5623,"dísz":5624,"egészséges":5625,"##rukt":5626,"##AD":5627,"valóság":5628,"internet":5629,"Jelen":5630,"##amin":5631,"tűnik":5632,"##elmiszer":5633,"##enekar":5634,"##onta":5635,"modern":5636,"##OG":5637,"tudat":5638,"##IK":5639,"magasabb":5640,"üt":5641,"tudják":5642,"##edves":5643,"##unkban":5644,"##eim":5645,"ideig":5646,"kapcs":5647,"követelmény":5648,"igazság":5649,"##OP":5650,"##ered":5651,"Be":5652,"vers":5653,"pih":5654,"##iaci":5655,"##csap":5656,"szerkeszt":5657,"##úttal":5658,"sim":5659,"izg":5660,"nyugdíj":5661,"##bar":5662,"Kl":5663,"közölt":5664,"válik":5665,"##ásos":5666,"Ut":5667,"list":5668,"##atták":5669,"műsor":5670,"##országban":5671,"remek":5672,"ebből":5673,"nappal":5674,"országos":5675,"##ezési":5676,"aktív":5677,"jót":5678,"##\".":5679,"felhív":5680,"##szerűen":5681,"embert":5682,"ekkor":5683,"büntet":5684,"funkció":5685,"Össz":5686,"##écs":5687,"##sztön":5688,"##almazott":5689,"tulajdonos":5690,"tetsz":5691,"erről":5692,"ant":5693,"szándék":5694,"##qu":5695,"2016.":5696,"##essége":5697,"##kan":5698,"civil":5699,"##aceb":5700,"száml":5701,"##ekhez":5702,"##jének":5703,"lelki":5704,"mélt":5705,"András":5706,"##éket":5707,"##vér":5708,"##oznak":5709,"##onyol":5710,"blog":5711,"##iew":5712,"idéz":5713,"lesznek":5714,"##növ":5715,"előad":5716,"Oly":5717,"##17":5718,"idős":5719,"##éséhez":5720,"##hal":5721,"Tamás":5722,"tájékoztatás":5723,"ág":5724,"##haj":5725,"fenti":5726,"helyet":5727,"próbál":5728,"##áltam":5729,"kulturális":5730,"beszer":5731,"meggy":5732,"##orvát":5733,"Munk":5734,"##ásában":5735,"tánc":5736,"##ációt":5737,"rejt":5738,"egyértelmű":5739,"##nyel":5740,"ugyanakkor":5741,"##való":5742,"##zük":5743,"##örtök":5744,"terjed":5745,"említett":5746,"##akra":5747,"##szó":5748,"##term":5749,"##ütörtök":5750,"##figy":5751,"szex":5752,"Bizt":5753,"##16":5754,"részben":5755,"##fogy":5756,"Ügy":5757,"assz":5758,"##hatják":5759,"##aival":5760,"##vét":5761,"gyönyör":5762,"pal":5763,"fesz":5764,"másod":5765,"köteles":5766,"##ori":5767,"##ÜL":5768,"##ÁNY":5769,"##eik":5770,"haza":5771,"pir":5772,"széles":5773,"##und":5774,"jöved":5775,"takar":5776,"egészségügyi":5777,"bizottság":5778,"neked":5779,"##ca":5780,"bevezet":5781,"tit":5782,"szig":5783,"vala":5784,"##évén":5785,"##rem":5786,"Nek":5787,"küzd":5788,"beruház":5789,"alakul":5790,"ablak":5791,"##tünk":5792,"kölcsön":5793,"##ományi":5794,"##gatás":5795,"jelenlegi":5796,"nélküli":5797,"kemény":5798,"##aszkod":5799,"ügyfél":5800,"önkormányzati":5801,"##ein":5802,"szeretet":5803,"helyre":5804,"utána":5805,"Akkor":5806,"Adat":5807,"könnyű":5808,"##AGY":5809,"##éteg":5810,"tapasztalat":5811,"mások":5812,"feldolg":5813,"főleg":5814,"##ocsi":5815,"##idék":5816,"bármilyen":5817,"##ords":5818,"munkahely":5819,"##szav":5820,"mennyire":5821,"##fjú":5822,"##tér":5823,"csökken":5824,"sötét":5825,"Iskola":5826,"2014.":5827,"##ereg":5828,"##mérs":5829,"##ései":5830,"##isztikai":5831,"un":5832,"mértékben":5833,"Szolgáltató":5834,"tej":5835,"elind":5836,"számított":5837,"##bel":5838,"##tit":5839,"##ÉP":5840,"ezelőtt":5841,"benyújt":5842,"Mű":5843,"##edés":5844,"##ura":5845,"eny":5846,"##mod":5847,"Ap":5848,"rád":5849,"ruh":5850,"vidék":5851,"##alommal":5852,"##ultak":5853,"munkát":5854,"olcs":5855,"igénybe":5856,"egyház":5857,"francia":5858,"hideg":5859,"##iszony":5860,"##NK":5861,"felh":5862,"élvez":5863,"##evők":5864,"folyamatos":5865,"##ulni":5866,"fekete":5867,"művész":5868,"##erv":5869,"##link":5870,"##AB":5871,"##mentes":5872,"veszt":5873,"halad":5874,"Aki":5875,"##ítési":5876,"lehetne":5877,"##uid":5878,"##14":5879,"##una":5880,"kim":5881,"ajt":5882,"##com":5883,"Külön":5884,"##item":5885,"mat":5886,"egyben":5887,"töltött":5888,"megyei":5889,"forrás":5890,"##ezést":5891,"véletlen":5892,"10.":5893,"hulladék":5894,"hivatalos":5895,"újság":5896,"befolyás":5897,"old":5898,"meccs":5899,"##ht":5900,"megtart":5901,"2011.":5902,"##akció":5903,"ajánlat":5904,"##oln":5905,"szolgáltatások":5906,"probléma":5907,"gener":5908,"Miért":5909,"##akad":5910,"##krét":5911,"IS":5912,"nyár":5913,"kísérlet":5914,"keret":5915,"megfog":5916,"erej":5917,"bi":5918,"##rue":5919,"##jak":5920,"Aztán":5921,"bejegy":5922,"idei":5923,"pszich":5924,"pót":5925,"tizen":5926,"##ík":5927,"##olgár":5928,"néha":5929,"biztosan":5930,"fű":5931,"érzék":5932,"mire":5933,"##őkép":5934,"amennyiben":5935,"mellék":5936,"##ami":5937,"rec":5938,"##jenek":5939,"Di":5940,"##ákban":5941,"##oztak":5942,"##üst":5943,"##irod":5944,"##IZ":5945,"##edik":5946,"semmit":5947,"##partner":5948,"leb":5949,"##ektív":5950,"##mérséklet":5951,"##ezked":5952,"##airól":5953,"méter":5954,"akit":5955,"##annel":5956,"##ezd":5957,"felsz":5958,"##ászól":5959,"##imn":5960,"átalak":5961,"##enként":5962,"szórak":5963,"o":5964,"log":5965,"től":5966,"21":5967,"sár":5968,"##örny":5969,"mon":5970,"beállítás":5971,"kuty":5972,"mondani":5973,"tudományos":5974,"##amos":5975,"közz":5976,"megf":5977,"Egész":5978,"##TAT":5979,"Go":5980,"##ÁM":5981,"##7-3":5982,"##TE":5983,"lél":5984,"##hatóság":5985,"tudtam":5986,"##ugár":5987,"tük":5988,"sincs":5989,"##24":5990,"Ok":5991,"üveg":5992,"figyelmet":5993,"##anszír":5994,"##oltak":5995,"##arket":5996,"hány":5997,"##ora":5998,"egység":5999,"Hát":6000,"##img":6001,"visszav":6002,"klassz":6003,"##oglal":6004,"elsz":6005,"mérk":6006,"olaj":6007,"III":6008,"tudok":6009,"ágy":6010,"lov":6011,"kerék":6012,"stratég":6013,"##oszl":6014,"##view":6015,"valamilyen":6016,"##zések":6017,"##fejlesztési":6018,"##iklós":6019,"bíz":6020,"##biz":6021,"kollég":6022,"elé":6023,"amik":6024,"##uper":6025,"papír":6026,"Tal":6027,"##atikus":6028,"átt":6029,"jellegű":6030,"kedvezmény":6031,"##rán":6032,"káv":6033,"##olikus":6034,"tartalmazza":6035,"adni":6036,"kért":6037,"meghal":6038,"csillag":6039,"##usztr":6040,"##true":6041,"összeh":6042,"##ence":6043,"sét":6044,"konz":6045,"kérdése":6046,"ráadásul":6047,"mindaz":6048,"##ellát":6049,"195":6050,"##uzs":6051,"állít":6052,"kifejezett":6053,"puszt":6054,"üzemelt":6055,"áram":6056,"összesen":6057,"feleség":6058,"##vári":6059,"felszer":6060,"összek":6061,"hús":6062,"##író":6063,"##szabad":6064,"azóta":6065,"eur":6066,"várt":6067,"továbbiakban":6068,"et":6069,"##öltöz":6070,"##eltek":6071,"##IV":6072,"cm":6073,"##átus":6074,"Kész":6075,"##olása":6076,"##title":6077,"működő":6078,"írt":6079,"automat":6080,"197":6081,"kivétel":6082,"##ÉNY":6083,"akadály":6084,"##cking":6085,"aminek":6086,"##óc":6087,"Na":6088,"##ivat":6089,"imád":6090,"mellé":6091,"##ódi":6092,"órakor":6093,"Ép":6094,"formában":6095,"##ecsk":6096,"##0,\"":6097,"##\":0,\"":6098,"főváros":6099,"2012.":6100,"##abc":6101,"x":6102,"##udapesti":6103,"csend":6104,"hétvég":6105,"##énnyel":6106,"##ekből":6107,"elismer":6108,"birtok":6109,"asztal":6110,"22":6111,"keletkez":6112,"Hely":6113,"visszatér":6114,"##cription":6115,"##rég":6116,"##adi":6117,"többek":6118,"Orbán":6119,"##bban":6120,"szerepet":6121,"szépen":6122,"karácsony":6123,"##etét":6124,"por":6125,"Szerint":6126,"##REL":6127,"##{\"":6128,"Lehet":6129,"##channel":6130,"Szem":6131,"##pály":6132,"Attila":6133,"##avail":6134,"##inál":6135,"##ky":6136,"remény":6137,"##dönt":6138,"javaslat":6139,"lez":6140,"##available":6141,"##ózkod":6142,"##nyt":6143,"Lajos":6144,"házas":6145,"határozat":6146,"vállalkozás":6147,"helyes":6148,"##yel":6149,"rendelkezésre":6150,"##11":6151,"##ezve":6152,"gyermekek":6153,"##00000000":6154,"##ettől":6155,"súlyos":6156,"##aspx":6157,"ösztön":6158,"##EGY":6159,"##ezer":6160,"##description":6161,"látogat":6162,"tartó":6163,"##ésében":6164,"##unkra":6165,"csúcs":6166,"érkezett":6167,"##kit":6168,"kötet":6169,"##ategory":6170,"gól":6171,"##bajnok":6172,"##short":6173,"kevésbé":6174,"pillanat":6175,"lassan":6176,"##alan":6177,"##Code":6178,"fiú":6179,"közvetlen":6180,"##partnert":6181,"##logo":6182,"##guid":6183,"Hozz":6184,"AL":6185,"##Lead":6186,"##jén":6187,"tudunk":6188,"##ywords":6189,"Ott":6190,"##ávol":6191,"##author":6192,"##raf":6193,"##ATED":6194,"##category":6195,"tegy":6196,"##shortLead":6197,"adja":6198,"##estamp":6199,"sors":6200,"##ername":6201,"##5573":6202,"##632-4":6203,"##timestamp":6204,"##keywords":6205,"##\":\"/":6206,"##ffdb":6207,"##tracking":6208,"##367-3":6209,"zsid":6210,"szim":6211,"Pál":6212,"##:00":6213,"##RELATED":6214,"db":6215,"##partnertag":6216,"##partnerlogo":6217,"##partnername":6218,"##trackingCode":6219,"##isbrandchannel":6220,"vége":6221,"##ini":6222,"##isbranded":6223,"Igen":6224,"##onc":6225,"##orbrand":6226,"##isbrandstory":6227,"##orbrandstory":6228,"##szolgáltatás":6229,"##ux":6230,"inf":6231,"tagjai":6232,"##köd":6233,"mutatja":6234,"tartja":6235,"##.\",\"":6236,"Hogyan":6237,"digit":6238,"tudnak":6239,"##000000000000":6240,"##úd":6241,"##00000000-0000-":6242,"##000000000000\",\"":6243,"területen":6244,"##akkal":6245,"vezetője":6246,"##éves":6247,"194":6248,"##aid":6249,"folyó":6250,"(4":6251,"Szeged":6252,"idők":6253,"##áris":6254,"íg":6255,"szed":6256,"##22":6257,"Olyan":6258,"##ÉSZ":6259,"nyílt":6260,"viselked":6261,"##hatod":6262,"gondoskod":6263,"kérelm":6264,"települ":6265,"##játok":6266,"szabadság":6267,"szerepel":6268,"megszűn":6269,"tulajdonság":6270,"##idej":6271,"központi":6272,"kulcs":6273,"belép":6274,"##oztatás":6275,"##ova":6276,"kötelezettség":6277,"fül":6278,"megnéz":6279,"##US":6280,"hasonl":6281,"##udvar":6282,"eszt":6283,"táj":6284,"##erék":6285,"szeretnék":6286,"1,":6287,"hosszabb":6288,"##olják":6289,"valamennyi":6290,"##elemmel":6291,"9.":6292,"##urkol":6293,"melyik":6294,"Sch":6295,"##oduk":6296,"##ona":6297,"felfed":6298,"##cím":6299,"hirdet":6300,"##ennél":6301,"zene":6302,"##nyom":6303,"lemez":6304,"kivitel":6305,"##irály":6306,"női":6307,"vall":6308,"jelöl":6309,"amelyben":6310,"sejt":6311,"##gyal":6312,"közvetlenül":6313,"##eri":6314,"Szín":6315,"##bor":6316,"ily":6317,"megint":6318,"##ity":6319,"akció":6320,"Program":6321,"vállalat":6322,"levél":6323,"munkavállal":6324,"élelmiszer":6325,"##app":6326,"##úti":6327,"##pénz":6328,"Nincs":6329,"##ipp":6330,"##áshoz":6331,"egyszerre":6332,"##nunk":6333,"Bank":6334,"beszéd":6335,"részvétel":6336,"megőr":6337,"bíróság":6338,"Jog":6339,"messz":6340,"##jelent":6341,"szervezetek":6342,"##si":6343,"Balaton":6344,"##----":6345,"##__":6346,"##elemben":6347,"##ZAT":6348,"##13":6349,"##ítésére":6350,"##szerep":6351,"##erület":6352,"##okhoz":6353,"##jait":6354,"Budapesten":6355,"héten":6356,"tervezett":6357,"##órum":6358,"##):":6359,"##aik":6360,"vasárnap":6361,"##ekvő":6362,"legfel":6363,"60":6364,"##orral":6365,"annál":6366,"tétel":6367,"##kezelő":6368,"##átok":6369,"gondolat":6370,"magyarországi":6371,"##kér":6372,"##aján":6373,"megter":6374,"tran":6375,"káros":6376,"budapesti":6377,"##lem":6378,"2017.":6379,"Ami":6380,"##íd":6381,"(3)":6382,"érzés":6383,"szeml":6384,"tábl":6385,"##zen":6386,"##vé":6387,"##iskola":6388,"szakkép":6389,"##utas":6390,"oper":6391,"Deb":6392,"idején":6393,"##60":6394,"Bel":6395,"szez":6396,"kultúr":6397,"lek":6398,"befej":6399,"Milyen":6400,"##ttel":6401,"##ogle":6402,"Fej":6403,"##esszük":6404,"biztonsági":6405,"##ültek":6406,"##res":6407,"Könyv":6408,"délután":6409,"##odott":6410,"stat":6411,"döntött":6412,"##ünkben":6413,"csel":6414,"##uth":6415,"tábor":6416,"##magas":6417,"mindenkinek":6418,"##hetők":6419,"##ítését":6420,"Ör":6421,"##ovács":6422,"tőle":6423,"Tr":6424,"csütörtök":6425,"határoz":6426,"##ital":6427,"##őn":6428,"önt":6429,"Mik":6430,"##őknek":6431,"##ságú":6432,"szívesen":6433,"##IT":6434,"használata":6435,"##kett":6436,"rajz":6437,"##kezés":6438,"reklám":6439,"##olható":6440,"##erny":6441,"##urcs":6442,"hozzáfér":6443,"forgalom":6444,"##ásnak":6445,"típusú":6446,"Egyesült":6447,"The":6448,"##edd":6449,"kód":6450,"mérkőzés":6451,"##ÁLY":6452,"tájékoztató":6453,"##szervezet":6454,"##film":6455,"keresztény":6456,"##arketing":6457,"nyugod":6458,"Tanács":6459,"##ÉSI":6460,"##jött":6461,"gl":6462,"##akör":6463,"##ÉL":6464,"szal":6465,"eng":6466,"##23":6467,"iskolai":6468,"olasz":6469,"CS":6470,"##enő":6471,"##verseny":6472,"sziget":6473,"##man":6474,"ipar":6475,"##ókkal":6476,"felhasználó":6477,"##ler":6478,"színvonal":6479,"aktuális":6480,"jutt":6481,"segítséget":6482,"speciális":6483,"fizikai":6484,"korr":6485,"nevű":6486,"##ach":6487,"##olták":6488,"pénzt":6489,"világh":6490,"##orb":6491,"##hatsz":6492,"megúj":6493,"##erem":6494,"révén":6495,"használható":6496,"miután":6497,"elvár":6498,"Reg":6499,"##ookie":6500,"szolgáltató":6501,"úr":6502,"szempontból":6503,"hallgató":6504,"drág":6505,"lakó":6506,"zsír":6507,"menek":6508,"érvényes":6509,"színész":6510,"##össze":6511,"sos":6512,"megadott":6513,"##önny":6514,"alapvető":6515,"##ÉT":6516,"##elték":6517,"felügy":6518,"##otel":6519,"##képp":6520,"tartós":6521,"alatti":6522,"tiszta":6523,"##ségben":6524,"##állított":6525,"tartózkod":6526,"At":6527,"műszaki":6528,"##kap":6529,"kapcsán":6530,"##rák":6531,"##igazgató":6532,"Vik":6533,"##adja":6534,"dolgozó":6535,"Sport":6536,"kockáz":6537,"teh":6538,"##mar":6539,"ügyfel":6540,"oka":6541,"##előre":6542,"##forduló":6543,"mindkét":6544,"##széd":6545,"kre":6546,"megkap":6547,"felmér":6548,"##ikát":6549,"ugyanaz":6550,"megközel":6551,"használni":6552,"fa":6553,"##étek":6554,"kormányz":6555,"##elég":6556,"bolt":6557,"elmondta":6558,"Ahogy":6559,"jelentőség":6560,"##szel":6561,"Né":6562,"vád":6563,"képet":6564,"hozott":6565,"##sd":6566,"##foglal":6567,"tudás":6568,"hangulat":6569,"##ry":6570,"gyönyörű":6571,"ára":6572,"##ide":6573,"írja":6574,"amivel":6575,"##ítést":6576,"10-":6577,"##eteket":6578,"##ámp":6579,"személyiség":6580,"##iában":6581,"(19":6582,"körülmények":6583,"##ájékoztató":6584,"vonal":6585,"##ínek":6586,"kihív":6587,"háttér":6588,"árt":6589,"##újabb":6590,"##állam":6591,"Természetesen":6592,"apró":6593,"##ásokkal":6594,"konkrét":6595,"##zió":6596,"##csal":6597,"##ektor":6598,"##jünk":6599,"bab":6600,"megerős":6601,"##ain":6602,"amire":6603,"partner":6604,"zenekar":6605,"Par":6606,"bevétel":6607,"Debrec":6608,"elb":6609,"szeretnénk":6610,"has":6611,"fejezet":6612,"##asztó":6613,"labd":6614,"ingyenes":6615,"könyvtár":6616,"agg":6617,"##ásához":6618,"##ázni":6619,"##akter":6620,"doll":6621,"##TA":6622,"poszt":6623,"##},":6624,"köv":6625,"##END":6626,"US":6627,"időtartam":6628,"Társaság":6629,"láttam":6630,"anyagi":6631,"tartani":6632,"valószínűleg":6633,"feltételek":6634,"Kedves":6635,"kifejezetten":6636,"konfer":6637,"hivatkoz":6638,"szerzett":6639,"valak":6640,"##szönt":6641,"Egyéb":6642,"##ítve":6643,"##ászt":6644,"Ber":6645,"##},{\"":6646,"alkalmazott":6647,"Intézet":6648,"##atikai":6649,"##uli":6650,"önként":6651,"##fehér":6652,"szegény":6653,"megoszt":6654,"ep":6655,"közönség":6656,"adatai":6657,"bemutatás":6658,"##ítik":6659,"##LT":6660,"kih":6661,"nyári":6662,"##atta":6663,"járó":6664,"##edt":6665,"##ányi":6666,"uniós":6667,"Miklós":6668,"##ráz":6669,"##SÁG":6670,"##co":6671,"##bevétel":6672,"5-":6673,"Műv":6674,"utáni":6675,"##ech":6676,"23":6677,"mondjuk":6678,"##EV":6679,"##acebook":6680,"##ettünk":6681,"klasszikus":6682,"##pari":6683,"adatkezelés":6684,"##Ez":6685,"tisztelet":6686,"szempontjából":6687,"##ozást":6688,"parlam":6689,"tavasz":6690,"feladata":6691,"feltét":6692,"##emlék":6693,"Szeret":6694,"kur":6695,"XX":6696,"legsz":6697,"##romos":6698,"##anyol":6699,"##biztosítás":6700,"megtal":6701,"##űrű":6702,"Tel":6703,"##ita":6704,"öreg":6705,"kelt":6706,"##öltött":6707,"##gatási":6708,"ko":6709,"neg":6710,"szeretne":6711,"buk":6712,"fert":6713,"##atni":6714,"##engyel":6715,"falu":6716,"látszik":6717,"tudod":6718,"választás":6719,"##ódás":6720,"nálunk":6721,"amelyeket":6722,"hozzát":6723,"zárt":6724,"##énél":6725,"##our":6726,"##ítottak":6727,"4-":6728,"##nom":6729,"##écsi":6730,"##fokú":6731,"##Nem":6732,"veszi":6733,"tudott":6734,"Tart":6735,"tudta":6736,"20.":6737,"Tehát":6738,"megprób":6739,"##fajta":6740,"##ionális":6741,"mad":6742,"##éshez":6743,"##olva":6744,"További":6745,"annyit":6746,"Mát":6747,"ismerős":6748,"mozgás":6749,"toj":6750,"##alkot":6751,"##álták":6752,"##ÉN":6753,"elkövet":6754,"Úr":6755,"##adat":6756,"regény":6757,"fénykép":6758,"Ház":6759,"##lel":6760,"##ságban":6761,"évfolyam":6762,"##tok":6763,"fűt":6764,"##part":6765,"##edet":6766,"##ey":6767,"azoknak":6768,"##akon":6769,"jóval":6770,"hum":6771,"alakult":6772,"tekintetében":6773,"##öket":6774,"##élni":6775,"szoft":6776,"##öngész":6777,"##zák":6778,"rám":6779,"##anci":6780,"hatása":6781,"196":6782,"bármely":6783,"Társ":6784,"=":6785,"##nevezés":6786,"feny":6787,"szil":6788,"##lovák":6789,"szomszéd":6790,"múlva":6791,"##edék":6792,"magukat":6793,"##icc":6794,"kereskedelmi":6795,"@":6796,"legújabb":6797,"előkész":6798,"látsz":6799,"http":6800,"##vesz":6801,"ural":6802,"##:0":6803,"##áltak":6804,"FEL":6805,"od":6806,"Nyug":6807,"velük":6808,"Unió":6809,"hiszem":6810,"nyar":6811,"EGY":6812,"##mint":6813,"lehetnek":6814,"##ation":6815,"megtekint":6816,"11.":6817,"Pár":6818,"##ázium":6819,"államp":6820,"Sajnos":6821,"hátrány":6822,"##imnázium":6823,"##öp":6824,"##program":6825,"##szol":6826,"##esztő":6827,"##MI":6828,"##rak":6829,"Önkormányzata":6830,"##álása":6831,"##ampány":6832,"vette":6833,"kényszer":6834,"parkol":6835,"háború":6836,"létesít":6837,"hűt":6838,"Nép":6839,"házi":6840,"réteg":6841,"##más":6842,"##ová":6843,"Erre":6844,"##segít":6845,"Q":6846,"##tör":6847,"hasonlóan":6848,"Alapítvány":6849,"tudomány":6850,"##lési":6851,"semmilyen":6852,"##mill":6853,"szerepe":6854,"szövet":6855,"##cél":6856,"Károly":6857,"##éti":6858,"Talán":6859,"kegy":6860,"##https":6861,"gazdálkod":6862,"képesek":6863,"jelölt":6864,"felismer":6865,"##oni":6866,"megszok":6867,"##magyar":6868,"12.":6869,"érte":6870,"##ezők":6871,"előtti":6872,"fürdő":6873,"egyetemi":6874,"Sh":6875,"##70":6876,"kiemelked":6877,"eddigi":6878,"##26":6879,"finanszír":6880,"Ár":6881,"##!!!":6882,"##esi":6883,"kiny":6884,"##edzs":6885,"Vas":6886,"szálloda":6887,"tol":6888,"időszakban":6889,"Th":6890,"rendszeresen":6891,"országban":6892,"##pót":6893,"##irtelen":6894,"##EZET":6895,"táp":6896,"ilyenkor":6897,"##apán":6898,"ennél":6899,"##ória":6900,"kiterj":6901,"eltérő":6902,"Fontos":6903,"rajt":6904,"Szabó":6905,"digitális":6906,"##tárgy":6907,"származó":6908,"kifizet":6909,"##zár":6910,"írta":6911,"állnak":6912,"érdeklőd":6913,"gyan":6914,"fellép":6915,"##ővel":6916,"Fidesz":6917,"##eivel":6918,"##45":6919,"##aradt":6920,"Rá":6921,"megelőző":6922,"##ekor":6923,"##ore":6924,"##védelem":6925,"kop":6926,"uj":6927,"száraz":6928,"##ilt":6929,"##szob":6930,"##óként":6931,"##hatott":6932,"##ikon":6933,"##iós":6934,"##íthető":6935,"Amer":6936,"##ezs":6937,"programok":6938,"##iszont":6939,"##ulnak":6940,"##ellen":6941,"méret":6942,"napig":6943,"##lu":6944,"vétel":6945,"negatív":6946,"##fut":6947,"előír":6948,"elhu":6949,"férfiak":6950,"engem":6951,"hétfő":6952,"##Egy":6953,"történelmi":6954,"sír":6955,"mennyi":6956,"megfelel":6957,"magyaráz":6958,"##red":6959,"meghív":6960,"hőmérséklet":6961,"IN":6962,"Felhasznál":6963,"Keres":6964,"##nünk":6965,"##áit":6966,"helye":6967,"megjegy":6968,"együttes":6969,"körében":6970,"Google":6971,"kilom":6972,"##eszköz":6973,"gondolom":6974,"AD":6975,"Világ":6976,"sebesség":6977,"##ze":6978,"szün":6979,"##pap":6980,"##ich":6981,"szót":6982,"##rajz":6983,"színpad":6984,"##élem":6985,"##aját":6986,"##szal":6987,"érdeklődés":6988,"##eknél":6989,"##ásait":6990,"##ww":6991,"áp":6992,"Bud":6993,"##ou":6994,"örül":6995,"kerülnek":6996,"##tál":6997,"##00-":6998,"##okba":6999,"évre":7000,"##eiben":7001,"##ozzák":7002,"egységes":7003,"Múzeum":7004,"nevét":7005,"the":7006,"Pl":7007,"Ind":7008,"alsó":7009,"valójában":7010,"##oros":7011,"egykori":7012,"berendezés":7013,"Gr":7014,"napján":7015,"Dél":7016,"##tatott":7017,"##www":7018,"##hegy":7019,"adta":7020,"bemutató":7021,"ült":7022,"minőségű":7023,"reform":7024,"jö":7025,"legfeljebb":7026,"minőségi":7027,"##lehet":7028,"előfordul":7029,"konyh":7030,"##nánk":7031,"gyakorlati":7032,"3-":7033,"##olaj":7034,"integr":7035,"abból":7036,"politikus":7037,"közölte":7038,"gyász":7039,"##perc":7040,"20-":7041,"##oljuk":7042,"étt":7043,"változat":7044,"Gond":7045,"##űl":7046,"##ana":7047,"fil":7048,"##lók":7049,"15-":7050,"klub":7051,"##házban":7052,"évig":7053,"rák":7054,"Kom":7055,"ellenőrzés":7056,"lenn":7057,"##...]":7058,"##kkor":7059,"számomra":7060,"böngész":7061,"ifjú":7062,"leh":7063,"magunk":7064,"##észek":7065,"ban":7066,"író":7067,"##igr":7068,"egyesület":7069,"Horvát":7070,"##ick":7071,"miniszterelnök":7072,"New":7073,"##nevezett":7074,"későbbi":7075,"##assa":7076,"forduló":7077,"kol":7078,"##gazdaság":7079,"•":7080,"##ián":7081,"##27":7082,"fokoz":7083,"SZER":7084,"##őváros":7085,"ellentét":7086,"##bér":7087,"nőtt":7088,"##olási":7089,"##out":7090,"Tisztelt":7091,"panasz":7092,"##etése":7093,"##éldául":7094,"gum":7095,"##erd":7096,"##ezze":7097,"vörös":7098,"függetlenül":7099,"előzetes":7100,"##nám":7101,"oldalán":7102,"problémák":7103,"Fi":7104,"ritk":7105,"##mis":7106,"##annyi":7107,"zenei":7108,"szellemi":7109,"dolgok":7110,"##ásáról":7111,"##ésű":7112,"##eszked":7113,"##emi":7114,"hozzászól":7115,"óri":7116,"Bél":7117,"fognak":7118,"pályázati":7119,"felelősség":7120,"működtet":7121,"kezdve":7122,"rit":7123,"koncentr":7124,"##oktatási":7125,"mozd":7126,"##árgy":7127,"valódi":7128,"##lány":7129,"##ográ":7130,"technikai":7131,"##ows":7132,"##kl":7133,"##pon":7134,"##AZ":7135,"Mih":7136,"##ign":7137,"menet":7138,"havi":7139,"##ct":7140,"ham":7141,"##ném":7142,"fiatalok":7143,"produk":7144,"pad":7145,"közzét":7146,"##tében":7147,"mindössze":7148,"anyagok":7149,"kort":7150,"15.":7151,"##sággal":7152,"szolgáló":7153,"##jék":7154,"Es":7155,"beép":7156,"##era":7157,"##lo":7158,"##íték":7159,"##aték":7160,"esett":7161,"Tib":7162,"elhunyt":7163,"varázs":7164,"##ésőbb":7165,"##ekszik":7166,"kutató":7167,"##atlanul":7168,"Kon":7169,"##gyűjt":7170,"##jaink":7171,"##osító":7172,"##történ":7173,"létezik":7174,"roh":7175,"pat":7176,"##ORM":7177,"##IL":7178,"##KÖ":7179,"határidő":7180,"-,":7181,"stabil":7182,"##hetett":7183,"bölcs":7184,"jelentette":7185,"kiadás":7186,"Var":7187,"elkül":7188,"##mét":7189,"##mutató":7190,"kellemes":7191,"kapcsolatot":7192,"megtan":7193,"busz":7194,"##ászati":7195,"öv":7196,"##evíz":7197,"Alk":7198,"##letek":7199,"##orok":7200,"##olyan":7201,"##ellyel":7202,"asszony":7203,"##ítsa":7204,"park":7205,"##árty":7206,"elképzel":7207,"##ÁT":7208,"IV":7209,"Nekem":7210,"##olyg":7211,"hiba":7212,"post":7213,"##ukra":7214,"##tön":7215,"14.":7216,"fesztivál":7217,"nyújtott":7218,"lep":7219,"##uj":7220,"erk":7221,"##örg":7222,"dip":7223,"biztosító":7224,"(5":7225,"dolgot":7226,"rug":7227,"orvosi":7228,"átlagos":7229,"konf":7230,"hálózat":7231,"Vál":7232,"teszik":7233,"forintot":7234,"18.":7235,"majdnem":7236,"##adása":7237,"##bázis":7238,"Rész":7239,"ww":7240,"##onnan":7241,"##biztonság":7242,"Viszont":7243,"##28":7244,"jövőben":7245,"tég":7246,"tanév":7247,"##őző":7248,"brit":7249,"tészt":7250,"##ájú":7251,"Kovács":7252,"piros":7253,"erőt":7254,"www":7255,"ennyi":7256,"üzenet":7257,"cookie":7258,"következmény":7259,"sikerül":7260,"folytatás":7261,"##ítették":7262,"##óth":7263,"##olgármester":7264,"##ádi":7265,"kedd":7266,"kutat":7267,"##kar":7268,"szintű":7269,"##almak":7270,"tükr":7271,"##járól":7272,"felb":7273,"szűr":7274,"demok":7275,"##áci":7276,"elter":7277,"óvod":7278,"elkerül":7279,"optim":7280,"elõ":7281,"karakter":7282,"tők":7283,"fejlesztése":7284,"Krisztus":7285,"##ításra":7286,"27":7287,"##ává":7288,"##itány":7289,"Duna":7290,"##eljes":7291,"hitt":7292,"##ünkre":7293,"szűk":7294,"##társ":7295,"kampány":7296,"13.":7297,"##epció":7298,"and":7299,"átv":7300,"általa":7301,"##irend":7302,"##sék":7303,"izgalmas":7304,"##epp":7305,"##elődés":7306,"##cz":7307,"biztosítja":7308,"Első":7309,"##ológus":7310,"csok":7311,"##esített":7312,"mm":7313,"##tus":7314,"szén":7315,"##álatos":7316,"'":7317,"##beszer":7318,"Mond":7319,"##iban":7320,"##UD":7321,"##alog":7322,"Zsolt":7323,"tanuló":7324,"mindegyik":7325,"személyek":7326,"Szövetség":7327,"##hy":7328,"##eltem":7329,"meghatározó":7330,"űr":7331,"ás":7332,"##szerint":7333,"egyeztet":7334,"##bum":7335,"##nes":7336,"térkép":7337,"fórum":7338,"következtében":7339,"Azért":7340,"lef":7341,"ben":7342,"##esse":7343,"##ezésre":7344,"##me":7345,"hirtelen":7346,"##éppen":7347,"bekezdése":7348,"Szóval":7349,"##ébb":7350,"##sok":7351,"kétszer":7352,"28":7353,"sosem":7354,"##ításának":7355,"néven":7356,"leggy":7357,"##sorozat":7358,"##ástól":7359,"Rem":7360,"Hung":7361,"Mihály":7362,"Év":7363,"oktatási":7364,"óriási":7365,"jármű":7366,"##sen":7367,"Gyermek":7368,"##ekció":7369,"fent":7370,"Rom":7371,"kidolg":7372,"adag":7373,"piaci":7374,"Nemzetközi":7375,"kettő":7376,"elektromos":7377,"rendszeres":7378,"##iter":7379,"pontja":7380,"##aiban":7381,"felmer":7382,"##??":7383,"dics":7384,"kissé":7385,"lépés":7386,"bán":7387,"hiába":7388,"##IR":7389,"du":7390,"##ash":7391,"esetleges":7392,"különbség":7393,"##ítjuk":7394,"szabályok":7395,"százalékkal":7396,"nehezen":7397,"##heted":7398,"##üd":7399,"életét":7400,"##IA":7401,"Szerintem":7402,"egymással":7403,"Pénz":7404,"##életi":7405,"Érdek":7406,"személyi":7407,"menü":7408,"##ákon":7409,"26":7410,"akiknek":7411,"##adta":7412,"különböz":7413,"komb":7414,"technológi":7415,"##titk":7416,"változtat":7417,"##ozók":7418,"##29":7419,"##ulása":7420,"##úton":7421,"##szerűbb":7422,"jelentősen":7423,"##ama":7424,"ajánlott":7425,"megtud":7426,"létszám":7427,"koz":7428,"##iatt":7429,"hangul":7430,"kilenc":7431,"##kötel":7432,"##ítások":7433,"##szervez":7434,"##oszk":7435,"##gyógy":7436,"##róf":7437,"biztosított":7438,"##társaság":7439,"befog":7440,"nyitott":7441,"GY":7442,"##olnak":7443,"##szolgál":7444,"##48":7445,"jóvá":7446,"##kat":7447,"Vár":7448,"##hivatal":7449,"tartalmazó":7450,"##div":7451,"szállás":7452,"kockázat":7453,"szülő":7454,"részes":7455,"##adalom":7456,"vevő":7457,"##inni":7458,"hamarosan":7459,"Mária":7460,"[...]":7461,"##viszony":7462,"##eret":7463,"2010.":7464,"PR":7465,"##oktatás":7466,"tanulók":7467,"Eh":7468,"19.":7469,"megvan":7470,"##nel":7471,"##seg":7472,"kiprób":7473,"fár":7474,"régió":7475,"Imre":7476,"eb":7477,"##moz":7478,"cip":7479,"élni":7480,"##ger":7481,"esk":7482,"##rit":7483,"##ipari":7484,"dolgozni":7485,"várja":7486,"##jal":7487,"mindennap":7488,"##járt":7489,"##óst":7490,"dolgokat":7491,"kék":7492,"##ART":7493,"##ulajdon":7494,"levegő":7495,"##AG":7496,"Sem":7497,"megkérd":7498,"felel":7499,"intézmények":7500,"##kó":7501,"##attak":7502,"Ex":7503,"Község":7504,"vásárlás":7505,"##eire":7506,"##ésnek":7507,"##ómai":7508,"Kat":7509,"inter":7510,"Hasz":7511,"Pedig":7512,"##aira":7513,"részletes":7514,"##oy":7515,"##ice":7516,"##avas":7517,"hazánk":7518,"##atokkal":7519,"vehet":7520,"eső":7521,"évente":7522,"bíró":7523,"velem":7524,"##cser":7525,"elhagy":7526,"##ázott":7527,"szüksége":7528,"##amb":7529,"##ettük":7530,"kiderült":7531,"kínai":7532,"35":7533,"vigy":7534,"vajon":7535,"##uni":7536,"##ásról":7537,"##rium":7538,"disz":7539,"##von":7540,"ugye":7541,"Ph":7542,"többen":7543,"üzen":7544,"Győr":7545,"16.":7546,"leny":7547,"##huz":7548,"marketing":7549,"##ian":7550,"Szil":7551,"##rol":7552,"hajl":7553,"sért":7554,"##UL":7555,"kén":7556,"##igény":7557,"##ikum":7558,"##eiről":7559,"beszámoló":7560,"Ekkor":7561,"##csökk":7562,"##für":7563,"##igazgatási":7564,"##opp":7565,"Bev":7566,"##párt":7567,"bevon":7568,"vizet":7569,"gyök":7570,"90":7571,"##ösen":7572,"##!)":7573,"tetej":7574,"##omban":7575,"Har":7576,"##ti":7577,"itthon":7578,"##ket":7579,"##ENT":7580,"címe":7581,"vallás":7582,"Kap":7583,"##lők":7584,"21.":7585,"látja":7586,"##osszabb":7587,"##atát":7588,"##fin":7589,"Viktor":7590,"##atja":7591,"ingyen":7592,"kő":7593,"bont":7594,"eredet":7595,"bármikor":7596,"##eve":7597,"dolgozik":7598,"százalékos":7599,"talaj":7600,"##ódnak":7601,"Majd":7602,"##émia":7603,"Király":7604,"velünk":7605,"ettől":7606,"##ica":7607,"temető":7608,"hétköz":7609,"felsor":7610,"elszám":7611,"kaland":7612,"##ásoknak":7613,"##városi":7614,"repül":7615,"##vei":7616,"terméket":7617,"innov":7618,"##csk":7619,"meglát":7620,"vastag":7621,"##esítő":7622,"##élemény":7623,"élett":7624,"kezdett":7625,"Erd":7626,"##ozták":7627,"##egnap":7628,"cig":7629,"##ókusz":7630,"keny":7631,"állap":7632,"##élés":7633,"vitt":7634,"tudatos":7635,"80":7636,"nyilvántart":7637,"menni":7638,"rögtön":7639,"kamat":7640,"##ságra":7641,"Ehhez":7642,"kérjük":7643,"##áng":7644,"eredmények":7645,"közösen":7646,"##ros":7647,"megköt":7648,"elenged":7649,"##hid":7650,"éven":7651,"##iság":7652,"városi":7653,"##asszony":7654,"szóval":7655,"olt":7656,"##ötte":7657,"gyakorlatilag":7658,"Hol":7659,"érett":7660,"mindenképpen":7661,"##Ha":7662,"büsz":7663,"##lek":7664,"azonosító":7665,"##eid":7666,"kellem":7667,"##ibb":7668,"##-)":7669,"uralkod":7670,"tartalom":7671,"megoldást":7672,"iránti":7673,"interj":7674,"all":7675,"nevet":7676,"szülők":7677,"tetszik":7678,"##remű":7679,"különféle":7680,"elért":7681,"##kapcsol":7682,"parancs":7683,"irodalom":7684,"MEG":7685,"támad":7686,"##EI":7687,"viszonylag":7688,"##olcs":7689,"kívánt":7690,"hatással":7691,"##EST":7692,"szolgálat":7693,"##ítanak":7694,"foglalt":7695,"##eszi":7696,"##szent":7697,"##uha":7698,"##választ":7699,"sokáig":7700,"TV":7701,"##ge":7702,"megrendelés":7703,"megszüntet":7704,"helyiség":7705,"hab":7706,"rov":7707,"##cionális":7708,"0,":7709,"##35":7710,"Szabad":7711,"##OD":7712,"címmel":7713,"##AGYAR":7714,"##ásokra":7715,"##fogyaszt":7716,"##essé":7717,"díjat":7718,"ler":7719,"2,":7720,"##ázó":7721,"kapu":7722,"##jam":7723,"##tiszt":7724,"beszélt":7725,"ezáltal":7726,"rel":7727,"##izál":7728,"gondoltam":7729,"##EP":7730,"korában":7731,"udvar":7732,"##éh":7733,"nyugati":7734,"testület":7735,"##ákra":7736,"8-":7737,"túr":7738,"abba":7739,"színes":7740,"ezúttal":7741,"massz":7742,"##attam":7743,"##talanul":7744,"török":7745,"lehető":7746,"(201":7747,"##őj":7748,"##helye":7749,"##hessen":7750,"##áss":7751,"világban":7752,"választott":7753,"##szeg":7754,"Közép":7755,"téli":7756,"szabályozás":7757,"##ight":7758,"segíteni":7759,"tél":7760,"információkat":7761,"fagy":7762,"Lak":7763,"olvasó":7764,"##eksz":7765,"##asonl":7766,"plusz":7767,"garant":7768,"bennünket":7769,"megye":7770,"##ohány":7771,"aktiv":7772,"kárty":7773,"##;/":7774,"##!”":7775,"egyelőre":7776,"Gyula":7777,"##központ":7778,"szuper":7779,"fajt":7780,"ipari":7781,"életet":7782,"értek":7783,"beav":7784,"din":7785,"reag":7786,"##leti":7787,"##áján":7788,"##ségének":7789,"kaptam":7790,"##ességet":7791,"költségvetési":7792,"Béla":7793,"amúgy":7794,"##vásár":7795,"ideális":7796,"##ozs":7797,"káb":7798,"Bék":7799,"##JA":7800,"fejlő":7801,"kicsi":7802,"##ödik":7803,"fém":7804,"##49":7805,"##értve":7806,"valamelyik":7807,"mindez":7808,"##ella":7809,"##ációja":7810,"külföld":7811,"Olvas":7812,"ti":7813,"30-":7814,"ob":7815,"##különb":7816,"##levél":7817,"##ételt":7818,"link":7819,"Főváros":7820,"magának":7821,"enyh":7822,"##üsp":7823,"La":7824,"Pest":7825,"bonyol":7826,"nagyjából":7827,"pub":7828,"6-":7829,"kan":7830,"rendszerek":7831,"##ossuth":7832,"500":7833,"nyilvánosság":7834,"##kinek":7835,"napot":7836,"fak":7837,"##enny":7838,"támogatást":7839,"Iz":7840,"##leked":7841,"edzés":7842,"Hír":7843,"negyedik":7844,"példány":7845,"látogató":7846,"##rot":7847,"immár":7848,"Budapesti":7849,"némi":7850,"könnyed":7851,"doboz":7852,"Közös":7853,"##rab":7854,"##ea":7855,"Lát":7856,"vak":7857,"Hon":7858,"##ukor":7859,"ahogyan":7860,"##emp":7861,"##endszer":7862,"várak":7863,"Car":7864,"ígér":7865,"körben":7866,"bot":7867,"isz":7868,"##IX":7869,"olimp":7870,"##ogó":7871,"##háza":7872,"##októl":7873,"##indows":7874,"úgynevezett":7875,"##gé":7876,"##harm":7877,"heti":7878,"##szög":7879,"megvásár":7880,"##öngy":7881,"##képzés":7882,"Tóth":7883,"##ressz":7884,"##ever":7885,"(4)":7886,"kerek":7887,"rang":7888,"szerd":7889,"Any":7890,"17.":7891,"##keresked":7892,"szeg":7893,"akarja":7894,"szür":7895,"nincsenek":7896,"##eljük":7897,"válogatott":7898,"közepén":7899,"##ala":7900,"híres":7901,"hatására":7902,"Fr":7903,"Facebook":7904,"érzem":7905,"##járás":7906,"##íni":7907,"Cl":7908,"Sim":7909,"vettem":7910,"##ergia":7911,"legut":7912,"letölt":7913,"##ügymin":7914,"játszott":7915,"bejár":7916,"##üspök":7917,"##állító":7918,"megalap":7919,"tudós":7920,"verzió":7921,"szeretné":7922,"szervezett":7923,"##üly":7924,"teljesítés":7925,"fizetési":7926,"intenz":7927,"biztonságos":7928,"##mind":7929,"katonai":7930,"bő":7931,"##ászat":7932,"##th":7933,"##helyi":7934,"##áruház":7935,"foglaltak":7936,"érzékeny":7937,"Néhány":7938,"körülmény":7939,"Tisz":7940,"szoba":7941,"##AV":7942,"##ikában":7943,"##agn":7944,"mégsem":7945,"##éseit":7946,"##atainak":7947,"kijelent":7948,"##ASZ":7949,"közlemény":7950,"##óba":7951,"részén":7952,"##ÁSI":7953,"Mikor":7954,"pozíció":7955,"szar":7956,"Figy":7957,"száj":7958,"##mát":7959,"##ác":7960,"##álunk":7961,"legyenek":7962,"adóz":7963,"életmód":7964,"##otó":7965,"##tük":7966,"elvesz":7967,"rajong":7968,"graf":7969,"hű":7970,"hős":7971,"repülő":7972,"forintos":7973,"Pet":7974,"Balázs":7975,"lépett":7976,"szállod":7977,"##azin":7978,"kerültek":7979,"##nának":7980,"##oli":7981,"céljából":7982,"##egyetem":7983,"Mindez":7984,"agr":7985,"látom":7986,"Kormány":7987,"##szolgálat":7988,"##usi":7989,"erőszak":7990,"köztük":7991,"##cel":7992,"múzeum":7993,"élete":7994,"kényelm":7995,"vezetett":7996,"##óf":7997,"Minisztérium":7998,"méretű":7999,"##mos":8000,"MAGYAR":8001,"##terv":8002,"eltávol":8003,"rendkívüli":8004,"villamos":8005,"Eur":8006,"##ázás":8007,"román":8008,"hullám":8009,"##ellel":8010,"Kult":8011,"mérleg":8012,"megnyit":8013,"##forrás":8014,"##techn":8015,"mult":8016,"##asi":8017,"jelenlét":8018,"##éje":8019,"közelebb":8020,"Egészség":8021,"Kossuth":8022,"Jobb":8023,"##áld":8024,"Hi":8025,"műanyag":8026,"##ereség":8027,"százaléka":8028,"szel":8029,"amiben":8030,"magatart":8031,"napos":8032,"193":8033,"bát":8034,"használja":8035,"kéne":8036,"alkat":8037,"sikert":8038,"állomány":8039,"##testülete":8040,"állampolgár":8041,"##belül":8042,"feszült":8043,"##geli":8044,"##kert":8045,"kezdeményezés":8046,"szigorú":8047,"határozott":8048,"magyarok":8049,"##játsz":8050,"##ítók":8051,"folyt":8052,"betart":8053,"Ebb":8054,"szezon":8055,"##piac":8056,"sugár":8057,"példa":8058,"erdő":8059,"##edő":8060,"##terjeszt":8061,"megegy":8062,"70":8063,"##arúg":8064,"diplom":8065,"embereket":8066,"megtalálható":8067,"cégek":8068,"Tibor":8069,"##iber":8070,"Végül":8071,"##helyzet":8072,"##ításához":8073,"##get":8074,"##XII":8075,"NY":8076,"fogalmaz":8077,"egyén":8078,"művészet":8079,"##aknak":8080,"alól":8081,"##helyett":8082,"megmutat":8083,"helyzetben":8084,"##mán":8085,"##=\"":8086,"elny":8087,"##oztam":8088,"tanfolyam":8089,"átvétel":8090,"##dvöz":8091,"##echan":8092,"##menet":8093,"##ancia":8094,"értem":8095,"búcs":8096,"téma":8097,"négyzet":8098,"Rák":8099,"költöz":8100,"##elekmény":8101,"Miskol":8102,"##jav":8103,"##RE":8104,"##pát":8105,"kiegészítő":8106,"rendező":8107,"egyértelműen":8108,"##46":8109,"felejt":8110,"életben":8111,"##szerte":8112,"főz":8113,"y":8114,"##ényi":8115,"##pedig":8116,"##ításával":8117,"Inn":8118,"##három":8119,"díja":8120,"##sük":8121,"előfizet":8122,"gyártó":8123,"##ilk":8124,"érkezik":8125,"##alista":8126,"ellenzék":8127,"kiderül":8128,"##almát":8129,"Élet":8130,"alkalmazni":8131,"lámp":8132,"##ary":8133,"net":8134,"##omi":8135,"##sziget":8136,"—":8137,"évad":8138,"Web":8139,"igazol":8140,"esik":8141,"mielőtt":8142,"##zséb":8143,"Lev":8144,"»":8145,"kultúra":8146,"Fran":8147,"sziv":8148,"őszint":8149,"képek":8150,"##lése":8151,"csatorn":8152,"megkez":8153,"tab":8154,"forgat":8155,"szeretném":8156,"##rog":8157,"lemond":8158,"munkaerő":8159,"kapta":8160,"000":8161,"##ciós":8162,"##ülnek":8163,"ismeretlen":8164,"magunkat":8165,"veszélyes":8166,"Arany":8167,"Üz":8168,"##erk":8169,"##állt":8170,"nézve":8171,"embernek":8172,"utat":8173,"album":8174,"csinálni":8175,"##anta":8176,"legjobban":8177,"##jet":8178,"felép":8179,"TAN":8180,"##ítan":8181,"mostani":8182,"glob":8183,"##EF":8184,"##jától":8185,"##gazdálkod":8186,"45":8187,"##erceg":8188,"!":8189,"tartják":8190,"##nyug":8191,"megcs":8192,"##AJ":8193,"görög":8194,"##nép":8195,"bes":8196,"##med":8197,"##prof":8198,"##ire":8199,"alapító":8200,"Gal":8201,"Ág":8202,"erősen":8203,"##ísér":8204,"##ipar":8205,"tökéletesen":8206,"##del":8207,"tekintettel":8208,"értékelés":8209,"értelmében":8210,"áron":8211,"##beteg":8212,"##őnek":8213,"ök":8214,"##top":8215,"értesít":8216,"##ars":8217,"elől":8218,"komplex":8219,"kocs":8220,"kommunikáció":8221,"##\\\"":8222,"feles":8223,"##ájára":8224,"##ump":8225,"alkoh":8226,"##kezelés":8227,"pénteken":8228,"Ugyanakkor":8229,"##orl":8230,"Azonban":8231,"összefoglal":8232,"messze":8233,"##gondol":8234,"##ősen":8235,"OK":8236,"fell":8237,"horg":8238,"recept":8239,"baleset":8240,"amiket":8241,"látott":8242,"élt":8243,"##ekr":8244,"edző":8245,"közremű":8246,"alkalmazása":8247,"kétség":8248,"végére":8249,"##Meg":8250,"hatalom":8251,"gyalog":8252,"kórház":8253,"##áson":8254,"innen":8255,"párhuz":8256,"mindennapi":8257,"##rag":8258,"fejlesztési":8259,"étkez":8260,"katolikus":8261,"##álva":8262,"alapanyag":8263,"##igur":8264,"eltűn":8265,"fölött":8266,"kilát":8267,"érdekel":8268,"##óni":8269,"védek":8270,"kapcsolatok":8271,"videó":8272,"Először":8273,"rendelete":8274,"##oth":8275,"vi":8276,"megszokott":8277,"szánt":8278,"története":8279,"elegendő":8280,"##ahol":8281,"rendszert":8282,"##avart":8283,"##áknak":8284,"tál":8285,"##orrás":8286,"Aut":8287,"##ota":8288,"védő":8289,"fele":8290,"nevelés":8291,"segíti":8292,"##adók":8293,"Med":8294,"kezdődik":8295,"##ezhet":8296,"##onst":8297,"írni":8298,"feltétlenül":8299,"##atika":8300,"tür":8301,"Mad":8302,"##xt":8303,"##álnak":8304,"húsz":8305,"##nénk":8306,"korszak":8307,"?":8308,"programot":8309,"Aján":8310,"##íróság":8311,"szoftver":8312,"értékesít":8313,"##süt":8314,"##ságos":8315,"##ságok":8316,"legend":8317,"szólt":8318,"akk":8319,"Intern":8320,"péntek":8321,"NEM":8322,"##álják":8323,"testvér":8324,"elősegít":8325,"lehetősége":8326,"##ozva":8327,"lehetőségek":8328,"épült":8329,"##ÁZ":8330,"Víz":8331,"##donság":8332,"Volt":8333,"##barát":8334,"vicc":8335,"dátum":8336,"##/1":8337,"##nyék":8338,"feletti":8339,"köszönt":8340,"Át":8341,"jelenik":8342,"csodálatos":8343,"szállítási":8344,"##éteres":8345,"vállalkozások":8346,"kérdést":8347,"##6)":8348,"munkáltató":8349,"lezár":8350,"##tori":8351,"##egyűjt":8352,"##ölni":8353,"##38":8354,"sar":8355,"##osszú":8356,"valahogy":8357,"bekövetkez":8358,"##örög":8359,"##ada":8360,"létrejött":8361,"Ám":8362,"bejegyzés":8363,"épített":8364,"szemb":8365,"államtitk":8366,"##cc":8367,"többség":8368,"##TV":8369,"##élyi":8370,"##ásai":8371,"hál":8372,"Inform":8373,"na":8374,"táplálkoz":8375,"##ihar":8376,"építés":8377,"biztosítási":8378,"elérni":8379,"sajtó":8380,"Joh":8381,"kizár":8382,"##ességét":8383,"soroz":8384,"megérkez":8385,"##jába":8386,"ábra":8387,"Hisz":8388,"mindkett":8389,"##fény":8390,"érintő":8391,"##ükben":8392,"##alit":8393,"komment":8394,"##elme":8395,"##magasabb":8396,"mez":8397,"kezelése":8398,"útján":8399,"7-":8400,"terén":8401,"Orosz":8402,"ellenőriz":8403,"##ofi":8404,"éreztem":8405,"tudatjuk":8406,"lakos":8407,"Akad":8408,"##felvétel":8409,"világot":8410,"színház":8411,"Test":8412,"Csal":8413,"2014":8414,"fejlesztés":8415,"Ráadásul":8416,"##47":8417,"világon":8418,"VI":8419,"##enyi":8420,"fegyver":8421,"szolgáltatást":8422,"2009.":8423,"ger":8424,"kimond":8425,"Ezután":8426,"Horváth":8427,"kes":8428,"erkölcs":8429,"##ensúly":8430,"használják":8431,"##éria":8432,"biztosítani":8433,"állapotban":8434,"alapú":8435,"tudsz":8436,"ábráz":8437,"írtam":8438,"##OTT":8439,"Csaba":8440,"##atórium":8441,"##ival":8442,"##roll":8443,"mást":8444,"elfel":8445,"Windows":8446,"megállapod":8447,"professz":8448,"szakemberek":8449,"300":8450,"karban":8451,"pot":8452,"##eltétel":8453,"##vállalkoz":8454,"##csat":8455,"életében":8456,"korszerű":8457,"látogatás":8458,"eljut":8459,"tájék":8460,"##lin":8461,"feltölt":8462,"Törvény":8463,"állatok":8464,"29":8465,"megfigy":8466,"##dob":8467,"kérelem":8468,"esetekben":8469,"kifejezés":8470,"rendben":8471,"rendőrség":8472,"##ÁNOS":8473,"pálya":8474,"##ror":8475,"##inte":8476,"##prém":8477,"kivált":8478,"##önk":8479,"meglévő":8480,"##ektek":8481,"értéke":8482,"##oxid":8483,"igénybevétel":8484,"2014-":8485,"szabadon":8486,"mondom":8487,"természeti":8488,"szokásos":8489,"technik":8490,"##testületének":8491,"ütem":8492,"bárki":8493,"beavatkoz":8494,"##omó":8495,"##zsébet":8496,"##arch":8497,"##ebbi":8498,"részéről":8499,"##omba":8500,"ítél":8501,"dolgozott":8502,"kapnak":8503,"naponta":8504,"visszak":8505,"##icit":8506,"##ereszt":8507,"félre":8508,"##El":8509,"hölgy":8510,"##árok":8511,"kos":8512,"##otok":8513,"internetes":8514,"##kát":8515,"Ben":8516,"Szervezet":8517,"ugr":8518,"Cél":8519,"##UM":8520,"##nod":8521,"adomány":8522,"##ódni":8523,"Él":8524,"fogják":8525,"jég":8526,"diákok":8527,"főszerep":8528,"##obban":8529,"szerepelt":8530,"##zus":8531,"##utal":8532,"kup":8533,"feltüntet":8534,"##esett":8535,"##izált":8536,"##ájával":8537,"mû":8538,"Néz":8539,"Kérjük":8540,"##RA":8541,"rab":8542,"fájdalom":8543,"rendelt":8544,"##RÓ":8545,"adatait":8546,"Hal":8547,"törzs":8548,"eredménye":8549,"Vesz":8550,"##éta":8551,"maximum":8552,"bemut":8553,"páros":8554,"Re":8555,"lő":8556,"fogva":8557,"##ülek":8558,"##óv":8559,"Kiv":8560,"csont":8561,"információt":8562,"##rajzi":8563,"Szép":8564,"kiegyen":8565,"egyensúly":8566,"Oszt":8567,"##ÜLET":8568,"Szabály":8569,"függően":8570,"##ítt":8571,"##olland":8572,"MSZ":8573,"##beszéd":8574,"##einket":8575,"##orna":8576,"kitölt":8577,"órán":8578,"##udit":8579,"áldoz":8580,"városban":8581,"sk":8582,"##mit":8583,"##irk":8584,"##atokat":8585,"##éch":8586,"öltöz":8587,"##**":8588,"formájában":8589,"spanyol":8590,"kiránd":8591,"##ulladás":8592,"kiemelkedő":8593,"drám":8594,"##ellenes":8595,"figyelmeztet":8596,"##szül":8597,"számtalan":8598,"##ood":8599,"tanult":8600,"##élly":8601,"hozta":8602,"megteremt":8603,"##szert":8604,"##isebb":8605,"mostan":8606,"##akadály":8607,"##-1":8608,"felhasználók":8609,"forgalmaz":8610,"folyamán":8611,"igényel":8612,"ly":8613,"előtte":8614,"##ternatív":8615,"hüly":8616,"nyáron":8617,"pihen":8618,"szál":8619,"gyom":8620,"##99":8621,"##tartási":8622,"Gerg":8623,"tavalyi":8624,"munkáját":8625,"##ülni":8626,"Jelenleg":8627,"elveszt":8628,"tagállam":8629,"tekintve":8630,"statiszt":8631,"##Cs":8632,"jövedelem":8633,"##ömb":8634,"történelem":8635,"##ózis":8636,"Kiss":8637,"döntő":8638,"##ékek":8639,"kikapcsol":8640,"legmagasabb":8641,"##...\",\"":8642,"közelében":8643,"kialakítása":8644,"##árműv":8645,"furcs":8646,"adatbázis":8647,"##tudományi":8648,"aránya":8649,"közeli":8650,"számunkra":8651,"gal":8652,"önkéntes":8653,"##száml":8654,"MTI":8655,"összehasonl":8656,"##szerkez":8657,"véget":8658,"##43":8659,"kielég":8660,"pol":8661,"##haszn":8662,"résztvevő":8663,"vezetői":8664,"##75":8665,"voltunk":8666,"email":8667,"##iaszt":8668,"Európában":8669,"##anyar":8670,"Korm":8671,"fran":8672,"##2,":8673,"##lása":8674,"okozott":8675,"megbízható":8676,"napra":8677,"emiatt":8678,"ellátás":8679,"##becs":8680,"észak":8681,"személyesen":8682,"évet":8683,"##eld":8684,"##úk":8685,"##VIII":8686,"##fejlesztés":8687,"érkező":8688,"országok":8689,"##személy":8690,"mutató":8691,"munkanap":8692,"Kín":8693,"római":8694,"##irodalom":8695,"tele":8696,"##arkas":8697,"konferenci":8698,"Park":8699,"félév":8700,"##iny":8701,"##arnok":8702,"másodperc":8703,"##cső":8704,"nyak":8705,"kiszolg":8706,"források":8707,"Szerencs":8708,"szerz":8709,"Köszönöm":8710,"##nák":8711,"színek":8712,"támogató":8713,"Miután":8714,"##osi":8715,"##vert":8716,"magában":8717,"##ara":8718,"kezdte":8719,"##ate":8720,"##opron":8721,"ch":8722,"időre":8723,"könnyebb":8724,"felszín":8725,"##örtön":8726,"##ecskem":8727,"főt":8728,"rob":8729,"útmutató":8730,"téren":8731,"##pel":8732,"legalábbis":8733,"##Nagy":8734,"##oknál":8735,"##zésére":8736,"lat":8737,"szombaton":8738,"tüntet":8739,"helyszínen":8740,"fizetni":8741,"rez":8742,"problémát":8743,"Emellett":8744,"rendelés":8745,"SZAK":8746,"olvasható":8747,"Szoci":8748,"ún":8749,"kötő":8750,"visszaj":8751,"ös":8752,"betegségek":8753,"szenny":8754,"REND":8755,"dollár":8756,"mikr":8757,"szeretem":8758,"megfogalmaz":8759,"2013":8760,"lélek":8761,"Debrecen":8762,"édesany":8763,"##ret":8764,"alapvetően":8765,"komolyan":8766,"bocsát":8767,"valamely":8768,"Tag":8769,"##bal":8770,"utcai":8771,"részvény":8772,"##KOL":8773,"##XX":8774,"műt":8775,"##húz":8776,"##zon":8777,"##der":8778,"média":8779,"##ament":8780,"alternatív":8781,"tanús":8782,"%-":8783,"##rág":8784,"##RT":8785,"Szerződés":8786,"gát":8787,"hatósági":8788,"vonz":8789,"nemrég":8790,"laz":8791,"ALAP":8792,"##osta":8793,"korosztály":8794,"amint":8795,"végső":8796,"##apasztal":8797,"kutya":8798,"kilométer":8799,"##sav":8800,"folyamatok":8801,"Oper":8802,"kezdődött":8803,"##ordin":8804,"évforduló":8805,"--":8806,"##berg":8807,"##ellig":8808,"kezdet":8809,"##éllyel":8810,"válság":8811,"egyetért":8812,"kiadvány":8813,"írásban":8814,"##95":8815,"Önnek":8816,"ek":8817,"##ozások":8818,"születés":8819,"rosszul":8820,"kg":8821,"Áll":8822,"válassz":8823,"2015":8824,"alv":8825,"vizsga":8826,"visszavon":8827,"ék":8828,"Katal":8829,"elégedett":8830,"ebéd":8831,"lehetetlen":8832,"másfél":8833,"közlekedési":8834,"Foly":8835,"##odat":8836,"igazgatója":8837,"##okk":8838,"##unkon":8839,"Széch":8840,"asz":8841,"22.":8842,"zsidó":8843,"##zuk":8844,"##ménnyel":8845,"##viteli":8846,"##gyárt":8847,"##gar":8848,"piacon":8849,"megfizet":8850,"hozza":8851,"##ségeket":8852,"küldött":8853,"##tető":8854,"tantárgy":8855,"többsége":8856,"##esnek":8857,"kever":8858,"vékony":8859,"Ham":8860,"szől":8861,"##puszt":8862,"Három":8863,"##eviz":8864,"világbajnok":8865,"##:3":8866,"EN":8867,"nyilvántartás":8868,"munkás":8869,"kedvező":8870,"##érdek":8871,"##védő":8872,"rózs":8873,"eladó":8874,"vacs":8875,"##CIÓ":8876,"televíz":8877,"##öb":8878,"megakadály":8879,"vonatkozóan":8880,"kreatív":8881,"mért":8882,"##üveg":8883,"##ezését":8884,"##itek":8885,"##évé":8886,"Erzsébet":8887,"védett":8888,"##azás":8889,"bút":8890,"dohány":8891,"##land":8892,"##korú":8893,"obj":8894,"##inkat":8895,"##tartó":8896,"elutas":8897,"##fit":8898,"Pécs":8899,"változások":8900,"##hasznú":8901,"##angél":8902,"kif":8903,"gépj":8904,"érzi":8905,"##kult":8906,"Emlék":8907,"orr":8908,"nyúl":8909,"##áték":8910,"feladatokat":8911,"|":8912,"##hetsz":8913,"##vad":8914,"##jut":8915,"nyelvű":8916,"##őkkel":8917,"férj":8918,"térség":8919,"No":8920,"község":8921,"##bol":8922,"##atra":8923,"másrészt":8924,"kifog":8925,"beáll":8926,"világos":8927,"fia":8928,"##ártya":8929,"képerny":8930,"rugalmas":8931,"minimum":8932,"kezelő":8933,"##ászár":8934,"jók":8935,"##ovjet":8936,"mezőgazdasági":8937,"jóváhagy":8938,"teny":8939,"##ennyire":8940,"##85":8941,"órát":8942,"sorban":8943,"##lási":8944,"##ozását":8945,"felhasználói":8946,"Sőt":8947,"automatikusan":8948,"TER":8949,"következik":8950,"beszélgetés":8951,"##illa":8952,"passz":8953,"Rég":8954,"##eszél":8955,"##jegyzék":8956,"##SZÁG":8957,"##apor":8958,"##sztikus":8959,"##attart":8960,"##fia":8961,"##yás":8962,"##őtlen":8963,"rájuk":8964,"öl":8965,"terep":8966,"##65":8967,"des":8968,"kerékpár":8969,"támogatási":8970,"krém":8971,"konflik":8972,"újdonság":8973,"koncepció":8974,"olcsó":8975,"##BEN":8976,"módja":8977,"husz":8978,"##hiány":8979,"##anapság":8980,"##űnő":8981,"##ségű":8982,"nyilvános":8983,"tűnt":8984,"##LET":8985,"útvonal":8986,"##ner":8987,"költségek":8988,"meghall":8989,"##politikai":8990,"##oszlop":8991,"ugyanúgy":8992,"##edi":8993,"##eletek":8994,"előterjeszt":8995,"dom":8996,"##esebben":8997,"Francia":8998,"##ELY":8999,"rendezett":9000,"##eredmény":9001,"ve":9002,"##eztük":9003,"adós":9004,"környezetben":9005,"##ESZ":9006,"melyben":9007,"kaptak":9008,"##telenül":9009,"futó":9010,"Mér":9011,"##helyek":9012,"menedzs":9013,"alacsonyabb":9014,"fajta":9015,"##aktív":9016,"##émiai":9017,"vásárló":9018,"polgári":9019,"nyaral":9020,"működési":9021,"összev":9022,"kényelmes":9023,"színű":9024,"véve":9025,"Man":9026,"ágaz":9027,"harminc":9028,"##itor":9029,"##rát":9030,"##rik":9031,"migr":9032,"##források":9033,"segéd":9034,"fontosabb":9035,"elképz":9036,"divat":9037,"próbálkoz":9038,"tetszett":9039,"maradék":9040,"többé":9041,"elismert":9042,"mak":9043,"pedagógus":9044,"játszik":9045,"információs":9046,"pontot":9047,"löv":9048,"tájékoztatást":9049,"##ola":9050,"##\":\"2019.":9051,"beszélget":9052,"##szeres":9053,"##20-":9054,"láz":9055,"transz":9056,"##örnyezet":9057,"Ír":9058,"##...)":9059,"##letes":9060,"változatos":9061,"csill":9062,"találni":9063,"##ászok":9064,"##ságának":9065,"Pály":9066,"szemlélet":9067,"hamis":9068,"Ge":9069,"##ulátor":9070,"##ikailag":9071,"–,":9072,"mindenkit":9073,"kapac":9074,"megállapodás":9075,"napokban":9076,"életének":9077,"##frast":9078,"építési":9079,"ismeret":9080,"##ÁSA":9081,"##UNK":9082,"világháború":9083,"szerkezet":9084,"címet":9085,"kíváncsi":9086,"pre":9087,"tág":9088,"méltó":9089,"##TER":9090,"##ításában":9091,"Érték":9092,"Színház":9093,"##ath":9094,"Mon":9095,"befektetési":9096,"mennyiségű":9097,"használatát":9098,"##ekbe":9099,"##díjas":9100,"ADAT":9101,"épül":9102,"fogyasztó":9103,"##ítél":9104,"##század":9105,"működését":9106,"Vállal":9107,"##csomag":9108,"értelemben":9109,"miként":9110,"gr":9111,"leírás":9112,"utazás":9113,"elrend":9114,"##\":\"2018.":9115,"ennyire":9116,"mág":9117,"leány":9118,"biztosítása":9119,"##szoba":9120,"abszol":9121,"elmélet":9122,"##burg":9123,"ló":9124,"emellett":9125,"résztvevők":9126,"mosoly":9127,"sör":9128,"technológia":9129,"végző":9130,"társas":9131,"##hálóz":9132,"amin":9133,"költsége":9134,"önkormányzatok":9135,"árak":9136,"ellátott":9137,"futam":9138,"ezután":9139,"##ulását":9140,"2010-":9141,"dur":9142,"##level":9143,"Tudomány":9144,"felek":9145,"alkotmány":9146,"hatályos":9147,"rokon":9148,"irányuló":9149,"érdem":9150,"##frastrukt":9151,"kívüli":9152,"Tám":9153,"sérül":9154,"szerelem":9155,"összefüggő":9156,"##irdetés":9157,"##isk":9158,"tevékenységet":9159,"jogviszony":9160,"31-":9161,"többnyire":9162,"elnevezés":9163,"mem":9164,"terjeszt":9165,"régen":9166,"##are":9167,"adnak":9168,"##oldali":9169,"##éséről":9170,"##echn":9171,"normális":9172,"##astély":9173,"##fesz":9174,"Dok":9175,"esküv":9176,"eltelt":9177,"##öttem":9178,"ital":9179,"páp":9180,"kerest":9181,"foglalkozó":9182,"2016":9183,"adók":9184,"befizet":9185,"##\\/":9186,"elterjed":9187,"melyeket":9188,"tü":9189,"##hát":9190,"cent":9191,"3,":9192,"területek":9193,"veszélyeztet":9194,"##atók":9195,"##õk":9196,"foglalkozik":9197,"##ességi":9198,"trend":9199,"tilt":9200,"##ABÁLY":9201,"kocsi":9202,"reggeli":9203,"##iségi":9204,"események":9205,"##úny":9206,"On":9207,"figyelmét":9208,"alaposan":9209,"Kör":9210,"##onként":9211,"stressz":9212,"temetőben":9213,"onnan":9214,"alkalmazás":9215,"##uss":9216,"##TM":9217,"vonatkozik":9218,"környezeti":9219,"járul":9220,"kivéve":9221,"kérelmező":9222,"úgyhogy":9223,"av":9224,"Vannak":9225,"kérdések":9226,"##ekkora":9227,"minimális":9228,"japán":9229,"##2)":9230,"##olók":9231,"##fogó":9232,"lettek":9233,"##udományi":9234,"##ZŐ":9235,"##iskolai":9236,"ősz":9237,"25-":9238,"könyvet":9239,"ásvány":9240,"Eszt":9241,"Kál":9242,"tek":9243,"eldönt":9244,"matem":9245,"##tári":9246,"kellemetlen":9247,"tv":9248,"##tovább":9249,"##edek":9250,"korai":9251,"##olást":9252,"megjelenő":9253,"##evés":9254,"ráj":9255,"támogatja":9256,"##nyelv":9257,"##eleg":9258,"területi":9259,"Árp":9260,"meglehet":9261,"##Magyar":9262,"Bor":9263,"osztrák":9264,"vendégek":9265,"legkisebb":9266,"##viz":9267,"Ebből":9268,"akiket":9269,"látta":9270,"találtam":9271,"kitart":9272,"##ESZT":9273,"2010":9274,"akartam":9275,"motiv":9276,"##lást":9277,"hav":9278,"helyét":9279,"élnek":9280,"áldozat":9281,"Hotel":9282,"beszélni":9283,"Egyház":9284,"OR":9285,"szünet":9286,"strand":9287,"##sereg":9288,"hozzánk":9289,"előz":9290,"véletlenül":9291,"##TATÓ":9292,"amelyik":9293,"##:5":9294,"Eng":9295,"##ereket":9296,"##elődési":9297,"##akarék":9298,"labdarúg":9299,"BM":9300,"alkatrész":9301,"Ellen":9302,"Óv":9303,"ra":9304,"rát":9305,"egyrészt":9306,"érzelm":9307,"gon":9308,"##tatni":9309,"szerződést":9310,"##akrabban":9311,"eléggé":9312,"szeretettel":9313,"##ségnek":9314,"kislány":9315,"nyelven":9316,"Pal":9317,"órás":9318,"fotó":9319,"##felület":9320,"adatlap":9321,"##tette":9322,"##élő":9323,"##anna":9324,"##jei":9325,"##művész":9326,"elsőd":9327,"##BB":9328,"strukt":9329,"Haj":9330,"##erte":9331,"Anna":9332,"keleti":9333,"mondott":9334,"Észak":9335,"##közben":9336,"##mot":9337,"hajó":9338,"szakma":9339,"ütköz":9340,"##199":9341,"amellyel":9342,"déli":9343,"##nének":9344,"parad":9345,"far":9346,"##különböz":9347,"életre":9348,"mentén":9349,"megszól":9350,"##olom":9351,"testi":9352,"##édia":9353,"##égzés":9354,"alapja":9355,"25.":9356,"képző":9357,"üd":9358,"egyedülálló":9359,"kommunikációs":9360,"kincs":9361,"napirend":9362,"tevékenységek":9363,"Fejleszt":9364,"##TK":9365,"##gő":9366,"##ozd":9367,"##művészeti":9368,"végéig":9369,"Rob":9370,"##abd":9371,"legszebb":9372,"hozzájárulás":9373,"drága":9374,"##1,":9375,"percig":9376,"##ball":9377,"##one":9378,"##adást":9379,"mas":9380,"Egyébként":9381,"börtön":9382,"szokás":9383,"##lang":9384,"##idejű":9385,"##oldalú":9386,"nyilatkozat":9387,"cit":9388,"Sokan":9389,"York":9390,"Mindig":9391,"isten":9392,"##ss":9393,"sajtót":9394,"nyelvi":9395,"legfőbb":9396,"helyezked":9397,"körüli":9398,"következtet":9399,"kataszt":9400,"##váj":9401,"Ab":9402,"gyár":9403,"##1)":9404,"rádió":9405,"bennem":9406,"kihasznál":9407,"##őre":9408,"kiem":9409,"szeretnél":9410,"##ulást":9411,"alkohol":9412,"cikl":9413,"végez":9414,"24.":9415,"##ények":9416,"körű":9417,"##eml":9418,"lelkes":9419,"versenyző":9420,"szabvány":9421,"szög":9422,"##ezető":9423,"##ességében":9424,"mechan":9425,"körülbelül":9426,"##nevezése":9427,"##fáj":9428,"feltár":9429,"ritkán":9430,"parlamenti":9431,"##ésekkel":9432,"számukra":9433,"MIN":9434,"teráp":9435,"alapuló":9436,"hirdetés":9437,"##DP":9438,"Köszönjük":9439,"összhang":9440,"okos":9441,"##idéz":9442,"Mély":9443,"##helyen":9444,"##IM":9445,"Például":9446,"illeték":9447,"kézzel":9448,"vettek":9449,"hajlandó":9450,"belüli":9451,"szervezeti":9452,"elemzés":9453,"kávé":9454,"##édi":9455,"ezüst":9456,"pi":9457,"ür":9458,"szerdán":9459,"kibocsát":9460,"##MÉNY":9461,"##váltás":9462,"Katalin":9463,"##szerek":9464,"Széchenyi":9465,"##ukban":9466,"Haz":9467,"kapható":9468,"##bolt":9469,"1/":9470,"##álok":9471,"szabályzat":9472,"váll":9473,"álláspont":9474,"nézni":9475,"USA":9476,"támogatása":9477,"##letet":9478,"amilyen":9479,"változó":9480,"##anyagok":9481,"elment":9482,"ügyvéd":9483,"Tárgy":9484,"##özpont":9485,"##lemez":9486,"##esztés":9487,"2008.":9488,"##vidék":9489,"Munka":9490,"%":9491,"##alitás":9492,"##:)":9493,"üres":9494,"nyíl":9495,"kombin":9496,"##latok":9497,"ítélet":9498,"##inél":9499,"##IG":9500,"segítő":9501,"érvényesít":9502,"Un":9503,"2016-":9504,"2013-":9505,"##44":9506,"ismeretek":9507,"pinc":9508,"fizetés":9509,"##entő":9510,"Nos":9511,"##hét":9512,"##ítással":9513,"##ons":9514,"célra":9515,"betölt":9516,"##kező":9517,"##pe":9518,"aláír":9519,"23.":9520,"##git":9521,"##uty":9522,"##õs":9523,"megd":9524,"hétfőn":9525,"Felhasználó":9526,"értékű":9527,"zuh":9528,"##89":9529,"ismerték":9530,"emlékeztet":9531,"megkeres":9532,"nar":9533,"védelem":9534,"bez":9535,"##ségre":9536,"klím":9537,"##áram":9538,"bátor":9539,"készíteni":9540,"magával":9541,"köszönöm":9542,"Árpád":9543,"##essen":9544,"anya":9545,"rendelkezésére":9546,"képz":9547,"írásbeli":9548,"2000":9549,"teher":9550,"szexuális":9551,"szombat":9552,"##arak":9553,"hozni":9554,"nyers":9555,"##amat":9556,"főként":9557,"kettős":9558,"elfoglal":9559,"hátsó":9560,"cigány":9561,"EM":9562,"elfogadott":9563,"Vel":9564,"Koll":9565,"ránk":9566,"ge":9567,"bánt":9568,"##ességgel":9569,"önmagában":9570,"Azon":9571,"##onyi":9572,"funkciók":9573,"##költ":9574,"vír":9575,"elolvas":9576,"##olnok":9577,"csapatok":9578,"fogok":9579,"##shop":9580,"##BAN":9581,"csütörtökön":9582,"##jogi":9583,"##rác":9584,"##jához":9585,"Mat":9586,"legközel":9587,"##éc":9588,"##ettó":9589,"mindenféle":9590,"11-":9591,"Varga":9592,"előírt":9593,"(200":9594,"püspök":9595,"##ORMÁNY":9596,"elhelyezked":9597,"hibát":9598,"ik":9599,"Nyilván":9600,"gondolkodás":9601,"##közép":9602,"induló":9603,"rendelkeznek":9604,"##dám":9605,"konst":9606,"kedden":9607,"közbeszer":9608,"seh":9609,"##ÍR":9610,"diagn":9611,"változik":9612,"helyén":9613,"Tartalom":9614,"16-":9615,"Nov":9616,"hivatás":9617,"Idén":9618,"sark":9619,"36":9620,"Gimnázium":9621,"nagyszerű":9622,"bill":9623,"azután":9624,"maximális":9625,"##kák":9626,"sorrend":9627,"kiadó":9628,"##alg":9629,"BIZ":9630,"fejlett":9631,"##ilatkoz":9632,"jönnek":9633,"nagym":9634,"191":9635,"Verseny":9636,"nevében":9637,"sm":9638,"minősül":9639,"##eth":9640,"##rep":9641,"150":9642,"dinam":9643,"30.":9644,"##etr":9645,"##EC":9646,"Jelent":9647,"hiányában":9648,"bizonytalan":9649,"##szór":9650,"Biztos":9651,"2015-":9652,"művészeti":9653,"##hatékony":9654,"##iról":9655,"bemutatása":9656,"tegnap":9657,"mozog":9658,"veszteség":9659,"ÁLT":9660,"##--------":9661,"alapítvány":9662,"csoda":9663,"MSZP":9664,"gyülek":9665,"intenzív":9666,"tartomány":9667,"hihetetlen":9668,"2017-":9669,"##asztott":9670,"párhuzam":9671,"híd":9672,"oktató":9673,"izom":9674,"olvasni":9675,"bármi":9676,"Ilyenkor":9677,"tenn":9678,"ÁLTAL":9679,"##lass":9680,"IP":9681,"háló":9682,"##aja":9683,"lengyel":9684,"##megy":9685,"##tes":9686,"##odó":9687,"dupl":9688,"sajátos":9689,"##hozatal":9690,"amelyen":9691,"##ótól":9692,"euró":9693,"##ezent":9694,"Gazdasági":9695,"megenged":9696,"napjaink":9697,"mára":9698,"Bizony":9699,"tartalma":9700,"éjjel":9701,"Zsuzs":9702,"műfaj":9703,"globális":9704,"##ıl":9705,"cseleked":9706,"közigazgatási":9707,"##feldolg":9708,"##név":9709,"illetékes":9710,"filozó":9711,"##au":9712,"##ZET":9713,"értékes":9714,"felaján":9715,"##abilit":9716,"tiltak":9717,"##ulta":9718,"összege":9719,"##ményt":9720,"rendelkezés":9721,"jegyzők":9722,"Nyír":9723,"nyugodtan":9724,"Mart":9725,"helyezett":9726,"##olf":9727,"telefonszám":9728,"adatkezelő":9729,"énekes":9730,"betegek":9731,"##ükre":9732,"tájékoz":9733,"##itthon":9734,"##ELL":9735,"##ősebb":9736,"##egen":9737,"éjszaka":9738,"Jól":9739,"##yű":9740,"##33":9741,"elad":9742,"##NI":9743,"2012-":9744,"tényező":9745,"##család":9746,"(5)":9747,"váz":9748,"Hét":9749,"Ref":9750,"regisztráció":9751,"##7)":9752,"sűrű":9753,"hig":9754,"árfolyam":9755,"liszt":9756,"illeti":9757,"változott":9758,"kivon":9759,"##kék":9760,"úsz":9761,"munkakör":9762,"néző":9763,"##ee":9764,"termékeket":9765,"megp":9766,"##SZER":9767,"telt":9768,"Fehér":9769,"##els":9770,"ismeri":9771,"##atty":9772,"trag":9773,"akarnak":9774,"raktár":9775,"tartanak":9776,"Fog":9777,"akarok":9778,"folyadék":9779,"##ue":9780,"##osztás":9781,"##ttől":9782,"##asszal":9783,"folytatott":9784,"étrend":9785,"átlát":9786,"áruház":9787,"építő":9788,"században":9789,"##ködő":9790,"alkotó":9791,"##OT":9792,"Ember":9793,"##88":9794,"tartom":9795,"##kány":9796,"emberiség":9797,"pályán":9798,"##olhat":9799,"##bi":9800,"##profit":9801,"elfogadás":9802,"csapata":9803,"ismerked":9804,"potenci":9805,"##papír":9806,"12-":9807,"##EJ":9808,"Vissz":9809,"Használ":9810,"deb":9811,"figyelem":9812,"sh":9813,"##üssz":9814,"garanci":9815,"top":9816,"kialakult":9817,"Való":9818,"összeget":9819,"fejl":9820,"##vitamin":9821,"##kedv":9822,"máris":9823,"##ubb":9824,"karri":9825,"##eiket":9826,"csaknem":9827,"##elését":9828,"záró":9829,"##ÁROS":9830,"##AC":9831,"fordult":9832,"mor":9833,"kora":9834,"rosszabb":9835,"##/20190":9836,"felszám":9837,"megyében":9838,"##\":\"20190":9839,"##érzet":9840,"kiind":9841,"gyenge":9842,"politika":9843,"Ezeket":9844,"##ésen":9845,"infrastrukt":9846,"utcában":9847,"árnyék":9848,"lista":9849,"##eje":9850,"##itu":9851,"kiválasztott":9852,"##kötelezett":9853,"lennie":9854,"olvassa":9855,"##ítésre":9856,"Mich":9857,"áttekint":9858,"okozta":9859,"##essék":9860,"szakm":9861,"2011-":9862,"##jében":9863,"##41":9864,"láthat":9865,"herceg":9866,"kiadott":9867,"kab":9868,"javasolt":9869,"Éva":9870,"##harc":9871,"##vélemény":9872,"##anya":9873,"hónapban":9874,"bolyg":9875,"##alizmus":9876,"számát":9877,"##jével":9878,"immun":9879,";":9880,"áru":9881,"Segít":9882,"idősebb":9883,"##riss":9884,"méh":9885,"##legesen":9886,"33":9887,"indított":9888,"kínálat":9889,"egymástól":9890,"##iben":9891,"##bert":9892,"##bej":9893,"##bem":9894,"elfelejt":9895,"##szerződés":9896,"Ádám":9897,"##no":9898,"képvisel":9899,"##ams":9900,"deviz":9901,"##adalmi":9902,"tip":9903,"közlekedés":9904,"mutatkoz":9905,"vidám":9906,"állomás":9907,"elengedhetetlen":9908,"karácsonyi":9909,"kiszám":9910,"meglepetés":9911,"juttatás":9912,"Szék":9913,"##park":9914,"##fest":9915,"##amara":9916,"hétvégén":9917,"rendszerben":9918,"intellig":9919,"teli":9920,"szívvel":9921,"nappali":9922,"##szár":9923,"pillanatban":9924,"teng":9925,"anyagot":9926,"szán":9927,"##sá":9928,"elkészült":9929,"publik":9930,"kapni":9931,"tervek":9932,"Termék":9933,"##ésekor":9934,"Arra":9935,"lebonyol":9936,"hí":9937,"##ser":9938,"Hall":9939,"játszani":9940,"Szomb":9941,"pop":9942,"##díjat":9943,"ellenfel":9944,"rögzített":9945,"##dög":9946,"Som":9947,"##méter":9948,"délelőtt":9949,"Keresked":9950,"##!\"":9951,"##hettek":9952,"KÉP":9953,"kompet":9954,"hátra":9955,"##);":9956,"##élked":9957,"intézkedések":9958,"anélkül":9959,"megind":9960,"terror":9961,"2012":9962,"hatáskör":9963,"felfog":9964,"kortárs":9965,"9-":9966,"filmet":9967,"##bizony":9968,"sérülés":9969,"megjelenik":9970,"modul":9971,"kutatási":9972,"Köztársaság":9973,"valahol":9974,"32":9975,"##ásokról":9976,"kivételével":9977,"gyászoló":9978,"tevékenysége":9979,"Pető":9980,"fant":9981,"őszi":9982,"Márt":9983,"eredményt":9984,"##kon":9985,"lend":9986,"##függ":9987,"Válasz":9988,"meglepő":9989,"profi":9990,"hajnal":9991,"ebbe":9992,"Tur":9993,"fogalmazott":9994,"##figyel":9995,"tipp":9996,"##kg":9997,"##emre":9998,"##kárty":9999,"##VII":10000,"ügyben":10001,"tartoz":10002,"Veszprém":10003,"másol":10004,"##európai":10005,"mérnök":10006,"magára":10007,"##őről":10008,"##abda":10009,"eleget":10010,"vállalatok":10011,"##áljuk":10012,"##ópály":10013,"##jaként":10014,"nyitva":10015,"költségvetés":10016,"iskolában":10017,"##odra":10018,"##ise":10019,"1-2":10020,"fogyaték":10021,"##MS":10022,"települések":10023,"esti":10024,"##őtér":10025,"felelősséget":10026,"abszolút":10027,"##erű":10028,"felszerelt":10029,"beérkez":10030,"Bib":10031,"hallgatók":10032,"##ater":10033,"dag":10034,"KI":10035,"##ítők":10036,"véleménye":10037,"Miskolc":10038,"CD":10039,"támadás":10040,"megér":10041,"szereti":10042,"rett":10043,"Könyvtár":10044,"környékén":10045,"blok":10046,"helysz":10047,":-)":10048,"Kapcsol":10049,"sáv":10050,"##kő":10051,"lejár":10052,"##ania":10053,"##ükkel":10054,"bűncs":10055,"eredetileg":10056,"div":10057,"##hull":10058,"kijelző":10059,"Fél":10060,"kezel":10061,"szokott":10062,"##ózás":10063,"határozza":10064,"fék":10065,"nyilvánvaló":10066,"kiköt":10067,"##ásainak":10068,"##osak":10069,"jogok":10070,"felülvizsg":10071,"01":10072,"régóta":10073,"Kulturális":10074,"##mes":10075,"vidéki":10076,"kattintva":10077,"ugyanolyan":10078,"nevelő":10079,"levő":10080,"hatású":10081,"##ativ":10082,"polgár":10083,"játékot":10084,"ton":10085,"só":10086,"Osztály":10087,"alul":10088,"##ácsi":10089,"északi":10090,"##ETT":10091,"webáruház":10092,"nyílik":10093,"##hő":10094,"##OLG":10095,"Nev":10096,"##nyomás":10097,"vizsgálatok":10098,"##vó":10099,"egyenlő":10100,"fokozott":10101,"##állítása":10102,"##rád":10103,"##ográfi":10104,"kérni":10105,"nálam":10106,"##dok":10107,"médi":10108,"Vásár":10109,"##örök":10110,"bizonyíték":10111,"##észett":10112,"##nyira":10113,"nektek":10114,"##hatalmaz":10115,"Ismer":10116,"##nyilván":10117,"tartotta":10118,"si":10119,"’":10120,"##így":10121,"31.":10122,"##76":10123,"Pa":10124,"rendelkezések":10125,"tehetség":10126,"Együtt":10127,"oldalt":10128,"2-3":10129,"Olasz":10130,"##viv":10131,"szlovák":10132,"TÁM":10133,"akkori":10134,"értékek":10135,"megismert":10136,"utólag":10137,"koordin":10138,"nyel":10139,"kutatók":10140,"Békés":10141,"pak":10142,"Mic":10143,"fájdalommal":10144,"##vitel":10145,"##számú":10146,"tulajdonképpen":10147,"nincsen":10148,"családok":10149,"##ÁLL":10150,"##tani":10151,"Amit":10152,"szomorú":10153,"érez":10154,"Annak":10155,"extra":10156,"fl":10157,"mondtam":10158,"##illi":10159,"##orit":10160,"megtiszt":10161,"erősebb":10162,"vitamin":10163,"ügyintéz":10164,"##spir":10165,"mondhat":10166,"##ürg":10167,"tanítvány":10168,"távon":10169,"használatával":10170,"Ah":10171,"honlapján":10172,"kerülő":10173,"kérdésre":10174,"szépség":10175,"##telj":10176,"##kiv":10177,"Moz":10178,"##ikája":10179,"hé":10180,"Hab":10181,"##állási":10182,"várhatóan":10183,"##ekrény":10184,"##kom":10185,"##használt":10186,"##86":10187,"választási":10188,"##gát":10189,"gyakori":10190,"gyűl":10191,"alkalmazható":10192,"Hajd":10193,"##fort":10194,"##sport":10195,"adtak":10196,"##millió":10197,"bármelyik":10198,"##hall":10199,"##dí":10200,"mondják":10201,"tavaszi":10202,"##uny":10203,"##ásokon":10204,"gyűjtemény":10205,"##ulmány":10206,"##TP":10207,"##Ft":10208,"##íthatja":10209,"profil":10210,"##meneti":10211,"prakt":10212,"##asd":10213,"vezeték":10214,"megad":10215,"##ike":10216,"akkum":10217,"ébr":10218,"##egyes":10219,"várják":10220,"mértéke":10221,"érdeklő":10222,"Igazgató":10223,"könyve":10224,"kamer":10225,"alkalmával":10226,"változtatás":10227,"##ili":10228,"##emmel":10229,"hangsúlyozta":10230,"John":10231,"olvastam":10232,"virt":10233,"##izáció":10234,"alud":10235,"Kal":10236,"##telep":10237,"ost":10238,"##ÁK":10239,"poh":10240,"éri":10241,"fiók":10242,"jelentés":10243,"##gyűlési":10244,"##udi":10245,"dug":10246,"fogom":10247,"##ren":10248,"##apja":10249,"könnyedén":10250,"##marad":10251,"##kereszt":10252,"kapunk":10253,"kv":10254,"##ásd":10255,"##ulhat":10256,"##antasztikus":10257,"olcsóbb":10258,"##sza":10259,"##szerkeszt":10260,"2011":10261,"Lond":10262,"szárny":10263,"##79":10264,"##olok":10265,"##pótlás":10266,"##esti":10267,"##ONT":10268,"##ítjük":10269,"31":10270,"hábor":10271,"14-":10272,"hajlam":10273,"készítés":10274,"évszázad":10275,"##elések":10276,"##ASÁG":10277,"##állomány":10278,"irodalmi":10279,"mindezt":10280,"szerették":10281,"##edni":10282,"jogszabályok":10283,"egyházi":10284,"vasút":10285,"##ness":10286,"táblázat":10287,"Idő":10288,"##zá":10289,"Környezet":10290,"##ikák":10291,"##óczi":10292,"##gáz":10293,"ilyes":10294,"emészt":10295,"##biztonsági":10296,"valakinek":10297,"##ace":10298,"Andre":10299,"megtört":10300,"bőven":10301,"##szerző":10302,"ÁLTALÁNOS":10303,"mesél":10304,"hiánya":10305,"##szál":10306,"halott":10307,"kihagy":10308,"##ovics":10309,"##unknak":10310,"##üld":10311,"számot":10312,"házasság":10313,"folyik":10314,"tekinthető":10315,"Ügyfél":10316,"##ánkat":10317,"##edelem":10318,"kisgy":10319,"##anélkül":10320,"LE":10321,"pál":10322,"titkos":10323,"kilép":10324,"terve":10325,"autók":10326,"ív":10327,"##etlenül":10328,"##ratikus":10329,"##PS":10330,"2018-":10331,"ötödik":10332,"lehetőségeket":10333,"sík":10334,"lánc":10335,"##minőség":10336,"##onok":10337,"18-":10338,"pil":10339,"##üh":10340,"Ver":10341,"##olnár":10342,"##olgári":10343,"vesznek":10344,"##áink":10345,"##szky":10346,"##ement":10347,"##iratkoz":10348,",,":10349,"távú":10350,"megkönny":10351,"Érdemes":10352,"##biztosítási":10353,"4,":10354,"##údió":10355,"##uma":10356,"##ure":10357,"Szociális":10358,"ejt":10359,"190":10360,"Városi":10361,"##bank":10362,"Intézmény":10363,"lop":10364,"pénztár":10365,"illetően":10366,"kialakulás":10367,"címen":10368,"parlament":10369,"Hiszen":10370,"fekvő":10371,"Gar":10372,"értesítés":10373,"napok":10374,"##ucc":10375,"jelzi":10376,"szörny":10377,"##attan":10378,"foglalkoztatás":10379,"Nyugat":10380,"fen":10381,"századi":10382,"##izni":10383,"forma":10384,"függvény":10385,"rej":10386,"simán":10387,"##ottan":10388,"amiért":10389,"döntést":10390,"Fl":10391,"##ítsd":10392,"##ÁV":10393,"##ályos":10394,"évében":10395,"szakértő":10396,"domb":10397,"játékok":10398,"elhatár":10399,"fogunk":10400,"hatást":10401,"felől":10402,"##alát":10403,"##even":10404,"Antal":10405,"##verz":10406,"Est":10407,"2017":10408,"munkak":10409,"várjuk":10410,"ellentétben":10411,"forró":10412,"bels":10413,"400":10414,"##ozásra":10415,"Pat":10416,"##zését":10417,"belől":10418,"joga":10419,"dik":10420,"Kics":10421,"atom":10422,"##ite":10423,"értékesítés":10424,"App":10425,"közgyűlés":10426,"##ánya":10427,"ritka":10428,"láng":10429,"titok":10430,"meglehetősen":10431,"egyfajta":10432,"megtér":10433,"##ítsuk":10434,"##........":10435,"##ID":10436,"tették":10437,"Dun":10438,"##árium":10439,"kezelni":10440,"végleges":10441,"##őtől":10442,"Kezd":10443,"##ozható":10444,"##oztató":10445,"feladatot":10446,"felügyelet":10447,"##Gy":10448,"##ans":10449,"srác":10450,"##cium":10451,"legr":10452,"informatikai":10453,"##icsom":10454,"szerencsére":10455,"ÖNK":10456,"bul":10457,"szélső":10458,"Mindenki":10459,"##takar":10460,"Tim":10461,"megnyug":10462,"git":10463,"közterület":10464,"átadás":10465,"##zött":10466,"mand":10467,"##ley":10468,"Javas":10469,"##hír":10470,"tönk":10471,"Bárm":10472,"Ők":10473,"egyidejű":10474,"extr":10475,"##ozzuk":10476,"fős":10477,"##onprofit":10478,"helyzetet":10479,"21-":10480,"trén":10481,"Forrás":10482,"##-9":10483,"##ulási":10484,"Szív":10485,"##eződés":10486,"nevelési":10487,"eszembe":10488,"adatvédelmi":10489,"##lót":10490,"##ítottam":10491,"interneten":10492,"##42":10493,"Klub":10494,"##ezetés":10495,"készülő":10496,"##iberális":10497,"tartoznak":10498,"##obbant":10499,"musz":10500,"##száma":10501,"remél":10502,"készlet":10503,"Ang":10504,"stílusú":10505,"iroda":10506,"##álék":10507,"fenntartható":10508,"ügyvezető":10509,"forradalom":10510,"##39":10511,"elsaját":10512,"##31":10513,"interjú":10514,"valaha":10515,"jelenség":10516,"##ÍV":10517,"Port":10518,"lényeges":10519,"##nevelés":10520,"##nökség":10521,"##vebben":10522,"tettek":10523,"Polgármester":10524,"##Mind":10525,"dolgozók":10526,"miszerint":10527,"Játék":10528,"##őzs":10529,"szop":10530,"Mari":10531,"##vál":10532,"vadász":10533,"okozhat":10534,"észl":10535,"##fo":10536,"##lettel":10537,"##fürdő":10538,"cserél":10539,"közepes":10540,"##alább":10541,"##minisztr":10542,"államtitkár":10543,"Németország":10544,"tudták":10545,"vezette":10546,"ef":10547,"törekv":10548,"furcsa":10549,"##láb":10550,"tű":10551,"összefog":10552,"sütik":10553,"fejlesztések":10554,"rendes":10555,"burkol":10556,"##ukkal":10557,"felesleges":10558,"##ko":10559,"hatását":10560,"##/20180":10561,"termelés":10562,"munkája":10563,"192":10564,"füst":10565,"##emok":10566,"elemek":10567,"##esíti":10568,"szag":10569,"Gergely":10570,"elsődleges":10571,"fennáll":10572,"ünnepi":10573,"összetett":10574,"##ÁJ":10575,"kereső":10576,"hip":10577,"óráig":10578,"##isztikus":10579,"tagok":10580,"##elefon":10581,"Kárpát":10582,"Géz":10583,"##iák":10584,"##ulva":10585,"készen":10586,"örömmel":10587,"eljárást":10588,"élményt":10589,"##put":10590,"jövőre":10591,"Egyszer":10592,"##raz":10593,"##özi":10594,"elbír":10595,"dolgoznak":10596,"##\":\"20180":10597,"##éstől":10598,"Önök":10599,"prot":10600,"##semmis":10601,"hibás":10602,"rock":10603,"Akár":10604,"##anda":10605,"illetőleg":10606,"##aidő":10607,"foglalkoztat":10608,"felvon":10609,"kialakított":10610,"tudtak":10611,"##ORMÁNYZAT":10612,"##SG":10613,"##mozg":10614,"veszik":10615,"irányba":10616,"Hang":10617,"nyomán":10618,"param":10619,"veg":10620,"Kol":10621,"téged":10622,"magánszemély":10623,"megszervez":10624,"vízzel":10625,"##?!":10626,"##ÉTEL":10627,"képzel":10628,"22-":10629,"##ugy":10630,"##ous":10631,"méz":10632,"##its":10633,"cseh":10634,"torn":10635,"nettó":10636,"hatálya":10637,"##jatok":10638,"sztár":10639,"képzési":10640,"24-":10641,"##olv":10642,"bekezdésében":10643,"19-":10644,"##műves":10645,"Szakmai":10646,"hárm":10647,"káp":10648,"##iga":10649,"##hont":10650,"szilárd":10651,"gonosz":10652,"hozzátart":10653,"13-":10654,"lényege":10655,"időpontja":10656,"hírek":10657,"Gyógy":10658,"kritikus":10659,"Rád":10660,"önk":10661,"##rukció":10662,"egyenl":10663,"elméleti":10664,"mindannyi":10665,"gépjármű":10666,"Cím":10667,"##ÉD":10668,"szembe":10669,"##erre":10670,"Tudományegyetem":10671,"##tad":10672,"jótékony":10673,"gondolt":10674,"energiát":10675,"Közben":10676,"##égium":10677,"kijelölt":10678,"megoldások":10679,"érv":10680,"ajtó":10681,"##kocsi":10682,"konyha":10683,"##ábl":10684,"normál":10685,"kosz":10686,"mutatják":10687,"##dor":10688,"életünk":10689,"kinek":10690,"##essük":10691,"Műszaki":10692,"Judit":10693,"##ÁCIÓ":10694,"##eves":10695,"17-":10696,"célok":10697,"Gyakor":10698,"magazin":10699,"##ELŐ":10700,"Tanszék":10701,"előadó":10702,"##arap":10703,"szik":10704,"lit":10705,"vaj":10706,"##ilkosság":10707,"Els":10708,"eléged":10709,"kint":10710,"technológiai":10711,"Cég":10712,"##bl":10713,"fertőzés":10714,"zajlik":10715,"homok":10716,"keresni":10717,"tisztában":10718,"képeket":10719,"hiányzik":10720,"alkalmazkod":10721,"leszek":10722,"lux":10723,"képen":10724,"Bi":10725,"Vidék":10726,"End":10727,"eredményeket":10728,"negy":10729,"Lengyel":10730,"tettem":10731,"állítja":10732,"szemmel":10733,"újságír":10734,"készítmény":10735,"szereplők":10736,"##képes":10737,"##ozására":10738,"érhető":10739,"##kás":10740,"homlok":10741,"időtartama":10742,"#":10743,"szurkol":10744,"##hattak":10745,"tűzolt":10746,"nevezett":10747,"##jukat":10748,"kontroll":10749,"származik":10750,"megváltoztat":10751,"munkanélkül":10752,"jöttek":10753,"elkez":10754,"##mester":10755,"Bak":10756,"1000":10757,"szavak":10758,"egyike":10759,"menekült":10760,"##álom":10761,"##oid":10762,"sug":10763,"##jek":10764,"##hitel":10765,"##jöv":10766,"##kereső":10767,"telefonon":10768,"beruházás":10769,"##KI":10770,"bud":10771,"használati":10772,"ölt":10773,"csomó":10774,"feled":10775,"emelet":10776,"##áron":10777,"mondan":10778,"kezelt":10779,"##seb":10780,"látogatók":10781,"csúsz":10782,"mutatott":10783,"Co":10784,"külföldön":10785,"HU":10786,"Adatkezelő":10787,"részesül":10788,"##edit":10789,"elküld":10790,"dep":10791,"HD":10792,"programja":10793,"álm":10794,"rt":10795,"evangél":10796,"figyelemmel":10797,"##intézet":10798,"Mező":10799,"csökkenti":10800,"dar":10801,"##azz":10802,"eszm":10803,"derül":10804,"tanulni":10805,"nyugdíjas":10806,"negyedév":10807,"##űg":10808,"megválaszt":10809,"vállalkozó":10810,"Elég":10811,"2007.":10812,"##ításáról":10813,"Eddig":10814,"szövetség":10815,"ÖNKORMÁNYZAT":10816,"Párt":10817,"##illant":10818,"adják":10819,"emleg":10820,"számon":10821,"szemét":10822,"kenyér":10823,"23-":10824,"##öttek":10825,"##venes":10826,"számla":10827,"érthető":10828,"##ügyminiszter":10829,"megment":10830,"Míg":10831,"##EU":10832,"elfogadja":10833,"márka":10834,"##itást":10835,"##egedi":10836,"csoportos":10837,"kormányzati":10838,"##for":10839,"vállalt":10840,"##In":10841,"könnyebben":10842,"##,-":10843,"nézett":10844,"végzi":10845,"zseb":10846,"sima":10847,"##lia":10848,"ilyet":10849,"másnap":10850,"##ph":10851,"sárga":10852,"##fik":10853,"fűszer":10854,"Tudományos":10855,"regionális":10856,"mehet":10857,"területeken":10858,"vizsgálata":10859,"nehezebb":10860,"org":10861,"tünet":10862,"bevándor":10863,"Gab":10864,"választani":10865,"tudomás":10866,"mérsék":10867,"nyomás":10868,"rém":10869,"tanácsadó":10870,"##usa":10871,"elkülön":10872,"kapsz":10873,"bél":10874,"##inform":10875,"ugyancsak":10876,"számítás":10877,"bekapcsol":10878,"támogatott":10879,"sikeresen":10880,"Fekete":10881,"##ré":10882,"##78":10883,"személyre":10884,"Sy":10885,"legnép":10886,"Qu":10887,"##umok":10888,"##ezésére":10889,"##ántúl":10890,"##szerzés":10891,"##szív":10892,"szerettem":10893,"##etik":10894,"demokrá":10895,"##szag":10896,"sérült":10897,"megvizsg":10898,"célú":10899,"területet":10900,"állandóan":10901,"Legyen":10902,"##bár":10903,"hétköznap":10904,"végtelen":10905,"körzet":10906,"ellenáll":10907,"Bart":10908,"##ánia":10909,"##akk":10910,"vették":10911,"megbeteg":10912,"ER":10913,"2008-":10914,"Rövid":10915,"lehessen":10916,"Éppen":10917,"##ALOM":10918,"bales":10919,"Államok":10920,"jelentett":10921,"Petőfi":10922,"##-8":10923,"##íván":10924,"gombra":10925,"##uti":10926,"szeretett":10927,"##galmas":10928,"kerületi":10929,"##ené":10930,"tető":10931,"##vezetés":10932,"előírás":10933,"Szegedi":10934,"érzelmi":10935,"jelentése":10936,"Molnár":10937,"Fesztivál":10938,"vív":10939,"kosár":10940,"##list":10941,"búcsúz":10942,"megsért":10943,"##fordult":10944,"##ükk":10945,"##odr":10946,"##we":10947,"kaz":10948,"jogot":10949,"törvényben":10950,"##ulcs":10951,"26.":10952,"felesége":10953,"##ávid":10954,"##piaci":10955,"##inn":10956,"Vörös":10957,"##állomás":10958,"##df":10959,"##rist":10960,"fázis":10961,"kip":10962,"ősi":10963,"bátran":10964,"Max":10965,"járműv":10966,"adatot":10967,"##yal":10968,"fáradt":10969,"adót":10970,"szervek":10971,"lehetőségét":10972,"##TÁR":10973,"##járó":10974,"##____":10975,"alkalmából":10976,"eredetű":10977,"évesen":10978,"##eges":10979,"körbe":10980,"##sik":10981,"##odni":10982,"fegyv":10983,"kategóriában":10984,"##olására":10985,"##erni":10986,"témában":10987,"dekor":10988,"tranz":10989,"emlékezet":10990,"vásárol":10991,"##tudom":10992,"##\"-":10993,"megsemmis":10994,"felbont":10995,"2009":10996,"csavar":10997,"ezeknek":10998,"kiáll":10999,"tanulás":11000,"mekkora":11001,"népesség":11002,"2018":11003,"##lon":11004,"##nyújt":11005,"billent":11006,"beleértve":11007,"##vére":11008,"##eztünk":11009,"növekedés":11010,"Irod":11011,"zavart":11012,"##szolgálati":11013,"tapasztalatok":11014,"##etve":11015,"tojás":11016,"találkozó":11017,"szeretnének":11018,"bemutatkoz":11019,"##rav":11020,"##han":11021,"cselekv":11022,"2009-":11023,"alapul":11024,"Pénzügyi":11025,"generáció":11026,"aj":11027,"megkülönböz":11028,"értelme":11029,"csendes":11030,"levelet":11031,"##össég":11032,"legkésőbb":11033,"##lós":11034,"Jobbik":11035,"##egészség":11036,"##ÉSE":11037,"MTA":11038,"segély":11039,"hazánkban":11040,"összegyűjt":11041,"##ítót":11042,"sajnál":11043,"kezelésére":11044,"ideiglen":11045,"##gin":11046,"bors":11047,"##ítse":11048,"##esült":11049,"jöhet":11050,"védelme":11051,"romant":11052,"##ennel":11053,"null":11054,"Németh":11055,"vita":11056,"##30-":11057,"##ÁLIS":11058,"##szövetség":11059,"##űek":11060,"##onikus":11061,"##cal":11062,"##szabadság":11063,"Kór":11064,"hadsereg":11065,"folyton":11066,"részében":11067,"látványos":11068,"tó":11069,"##fű":11070,"csoportok":11071,"mozdul":11072,"megmond":11073,"##beszél":11074,"kak":11075,"75":11076,"Önt":11077,"gépek":11078,"megél":11079,"Öt":11080,"találtak":11081,"SE":11082,"Akadémia":11083,"##kezelési":11084,"##ohas":11085,"Fogy":11086,"Valam":11087,"Kecskem":11088,"kérdő":11089,"refer":11090,"bok":11091,"csepp":11092,"##ületi":11093,"180":11094,"versenyt":11095,"haszn":11096,"##umot":11097,"szoros":11098,"meghird":11099,"2008":11100,"##álatok":11101,"##álog":11102,"##udv":11103,"kezdtem":11104,"##jegyzés":11105,"##unt":11106,"##abbak":11107,"manapság":11108,"tüz":11109,"megtakar":11110,"lányok":11111,"szintet":11112,"figyelni":11113,"##esetre":11114,"hatályba":11115,"cukor":11116,"tok":11117,"hozzájuk":11118,"megnevezése":11119,"konfliktus":11120,"pályázatok":11121,"fogalm":11122,"elmarad":11123,"keverék":11124,"Később":11125,"##polgármester":11126,"Dávid":11127,"szégy":11128,"##atú":11129,"emelkedett":11130,"igazából":11131,"működött":11132,"##jelen":11133,"utcán":11134,"stratégiai":11135,"##Európ":11136,"##forma":11137,"27.":11138,"tényleges":11139,"Nyom":11140,"##MP":11141,"28.":11142,"Air":11143,"##sejt":11144,"##kot":11145,"sav":11146,"szebb":11147,"2007-":11148,"Márton":11149,"megváltozott":11150,"##aktérium":11151,"Gyors":11152,"##ismeret":11153,"Vagyis":11154,"##abad":11155,"világszerte":11156,"gerinc":11157,"megjelölt":11158,"##”-":11159,"##ekély":11160,"produkció":11161,"##étlen":11162,"rász":11163,"##ÓL":11164,"##üzet":11165,"érdekelt":11166,"##gyors":11167,"hód":11168,"##hatás":11169,"##óka":11170,"##32":11171,"holnap":11172,"iskolák":11173,"##ish":11174,"##apr":11175,"madár":11176,"tanú":11177,"mondat":11178,"anyuk":11179,"veled":11180,"halála":11181,"elegáns":11182,"beépített":11183,"##tám":11184,"borz":11185,"##:1":11186,"##abizt":11187,"időjárás":11188,"##ogatni":11189,"Egyik":11190,"##ülési":11191,"amiről":11192,"tesznek":11193,"##ánnyal":11194,"##pat":11195,"##INT":11196,"úti":11197,"látjuk":11198,"akkora":11199,"kérem":11200,"Telj":11201,"hatóságok":11202,"##almú":11203,"keletkezett":11204,"##OV":11205,"eljárások":11206,"munkavégzés":11207,"Mil":11208,"##áinak":11209,"##eléssel":11210,"ajánljuk":11211,"##,6":11212,"##ilkos":11213,"##off":11214,"##08":11215,"szervező":11216,"##usztrál":11217,"sütő":11218,"##attól":11219,"MŰ":11220,"benz":11221,"Vajon":11222,"büntető":11223,"pályázatot":11224,"elsőként":11225,"középpont":11226,"vendéglát":11227,"harmad":11228,"aláírás":11229,"##hord":11230,"Bál":11231,"##munka":11232,"gyülekezet":11233,"##37":11234,"Hagy":11235,"játékosok":11236,"telek":11237,"útjára":11238,"illeszked":11239,"angyal":11240,"##etikai":11241,"Kiadó":11242,"harag":11243,"készülnek":11244,"##edben":11245,"Film":11246,"elár":11247,"felmond":11248,"egyenesen":11249,"##ezem":11250,"megkezd":11251,"gyanús":11252,"laptop":11253,"alakú":11254,"Szerencsére":11255,"##óbert":11256,"§-":11257,"értéket":11258,"földi":11259,"nyerte":11260,"mellette":11261,"szorg":11262,"megelőz":11263,"akarta":11264,"##mező":11265,"##étele":11266,"hátrányos":11267,"##,...":11268,"követi":11269,"fiúk":11270,"##ködési":11271,"felszól":11272,"felhasználása":11273,"képviselője":11274,"##ino":11275,"Kb":11276,"##forgalmi":11277,"##őke":11278,"##car":11279,"ízlés":11280,"##utaz":11281,"##reg":11282,"uk":11283,"túra":11284,"Telep":11285,"nyugodt":11286,"55":11287,"Ing":11288,"##alis":11289,"##96":11290,"fák":11291,"címre":11292,"várost":11293,"választék":11294,"szub":11295,"szert":11296,"Kereskedelmi":11297,"merev":11298,"hozzám":11299,"képzett":11300,"##yt":11301,"büszk":11302,"bic":11303,"autót":11304,"hónapos":11305,"adódó":11306,"álmod":11307,"##gatni":11308,"##növeked":11309,"váltak":11310,"allerg":11311,"##rac":11312,"Teljes":11313,"##ÖK":11314,"##szolgáltató":11315,"##tél":11316,"oszlop":11317,"akarat":11318,"Mc":11319,"felsőoktatási":11320,"th":11321,"##esztett":11322,"##ENY":11323,"SZABÁLY":11324,"##?”":11325,"esztét":11326,"percben":11327,"##ésről":11328,"resz":11329,"##lánc":11330,"fókusz":11331,"olykor":11332,"távolság":11333,"bajnoki":11334,"Col":11335,"parkoló":11336,"vírus":11337,"nélkülöz":11338,"##űri":11339,"Os":11340,"##törvény":11341,"ELŐ":11342,"ragaszkod":11343,"ciklus":11344,"felvet":11345,"##FA":11346,"kitüntet":11347,"Kit":11348,"fájl":11349,"vasúti":11350,"Internet":11351,"Országgyűlés":11352,"##ázi":11353,"26-":11354,"elhang":11355,"végezni":11356,"##akciók":11357,"it":11358,"képviselői":11359,"lefoly":11360,"Parlam":11361,"éles":11362,"kanyar":11363,"létesítmény":11364,"##ónia":11365,"##rosoft":11366,"mérg":11367,"Mac":11368,"iP":11369,"kezdeni":11370,"Pont":11371,"használjuk":11372,"barátnő":11373,"ügyész":11374,"szabott":11375,"##latform":11376,"Saját":11377,"DV":11378,"48":11379,"szegedi":11380,"##ham":11381,"Jegy":11382,"Géza":11383,"##íthat":11384,"Oroszország":11385,"##állítási":11386,"gyakorlatban":11387,"##ána":11388,"##odnak":11389,"##2/":11390,"feltűn":11391,"többiek":11392,"tisztán":11393,"járnak":11394,"kívánja":11395,"egymásra":11396,"szakképesítés":11397,"állni":11398,"kastély":11399,"címzett":11400,"38":11401,"##hög":11402,"##zõ":11403,"##ednek":11404,"fontosnak":11405,"PC":11406,"állítólag":11407,"Cseh":11408,"##csere":11409,"##ányos":11410,"##ehabilit":11411,"\",\"":11412,"tömör":11413,"MN":11414,"helyére":11415,"class":11416,"székhely":11417,"##BER":11418,"##regény":11419,"##hette":11420,"kategória":11421,"hűtő":11422,"Tény":11423,"legyőz":11424,"120":11425,"bonyolult":11426,"##sy":11427,"baba":11428,"pedagógiai":11429,"párhuzamosan":11430,"tisztesség":11431,"##cska":11432,"rendesen":11433,"remélem":11434,"fokozatosan":11435,"stand":11436,"##atik":11437,"##állap":11438,"##eljen":11439,"összhangban":11440,"biztosítás":11441,"##ÁSZ":11442,"tőke":11443,"irányelv":11444,"sajátosság":11445,"kaptunk":11446,"##odor":11447,"##RAM":11448,"##üszöb":11449,"##asa":11450,"alapon":11451,"tért":11452,"szelet":11453,"akarom":11454,"szőr":11455,"földön":11456,"##esk":11457,"##etést":11458,"lovag":11459,"erkölcsi":11460,"Jan":11461,"életkor":11462,"olimpiai":11463,"Ja":11464,"##rendelet":11465,"kiép":11466,"településen":11467,"mértékű":11468,"besor":11469,"konferencia":11470,"megmarad":11471,"##mw":11472,"##gyakor":11473,"##alizál":11474,"álom":11475,"##osa":11476,"kísért":11477,"Fejlesztési":11478,"járulék":11479,"okost":11480,"##ítéssel":11481,"megtörtént":11482,"kond":11483,"győzelem":11484,"Személyes":11485,"SP":11486,"ani":11487,"sürg":11488,"FI":11489,"vihar":11490,"Farkas":11491,"ahonnan":11492,"00":11493,"elkötelezett":11494,"jelzés":11495,"költő":11496,"Ifjú":11497,"lakást":11498,"##Több":11499,"éh":11500,"##rutt":11501,"legutóbbi":11502,"kéri":11503,"##ozással":11504,"művelet":11505,"Központi":11506,"következők":11507,"ismerete":11508,"újj":11509,"nyilvánosságra":11510,"##üvely":11511,"kozmet":11512,"drog":11513,"##UR":11514,"kellő":11515,"szerver":11516,"##ÁSOK":11517,"##vezér":11518,"28-":11519,"pontban":11520,"adminisztr":11521,"Állami":11522,"Reform":11523,"Pan":11524,"##Mi":11525,"táplálék":11526,"hallottam":11527,"elkészítés":11528,"##zünk":11529,"helyzete":11530,"##édelmi":11531,"reakció":11532,"kült":11533,"azonnali":11534,"##őleges":11535,"##volt":11536,"hete":11537,"repr":11538,"##3)":11539,"##etési":11540,"ötven":11541,"részletesen":11542,"tünetek":11543,"mindazokkal":11544,"##ild":11545,"megjelenése":11546,"##ratul":11547,"célkit":11548,"##air":11549,"Ur":11550,"##BA":11551,"Dav":11552,"bútor":11553,"eleve":11554,"##iasztok":11555,"ret":11556,"határon":11557,"szerelmes":11558,"svéd":11559,"tartalék":11560,"\\":11561,"##bizottság":11562,"köre":11563,"oldalról":11564,"Szövet":11565,"tort":11566,"tényezők":11567,"üdvöz":11568,"Tisza":11569,"##anyagot":11570,"Történ":11571,"belef":11572,"##atér":11573,"befolyásolja":11574,"Rákóczi":11575,"kérte":11576,"képviselet":11577,"##ongor":11578,"teljesítése":11579,"##ökkel":11580,"mindenhol":11581,"talp":11582,"spir":11583,"belt":11584,"felmérés":11585,"##tetés":11586,"proc":11587,"Feltétel":11588,"idõ":11589,"Határ":11590,"tárgyak":11591,"átfogó":11592,"##enter":11593,"települési":11594,"ult":11595,"emelt":11596,"##urt":11597,"ételek":11598,"tulajdonosa":11599,"Egészségügyi":11600,"nemes":11601,"összeköt":11602,"34":11603,"vállalati":11604,"átlagosan":11605,"##emből":11606,"kártya":11607,"##\"&":11608,"##íthatatlan":11609,"##pan":11610,"egyenes":11611,"##ohasem":11612,"to":11613,"##vező":11614,"##mentesen":11615,"Számos":11616,"megrendezésre":11617,"##élek":11618,"szapor":11619,"hor":11620,"sül":11621,"##adási":11622,"csíp":11623,"témakör":11624,"töröl":11625,"##ellátás":11626,"növények":11627,"kerülhet":11628,"##ókép":11629,"##atőr":11630,"Bl":11631,"##jainak":11632,"narancs":11633,"fantasztikus":11634,"##épület":11635,"előfordulhat":11636,"folytatódik":11637,"##övetkezet":11638,"akivel":11639,"felfügg":11640,"##növény":11641,"MUNK":11642,"merül":11643,"TÁMOP":11644,"Helyi":11645,"##összeg":11646,"szabályokat":11647,"##entrum":11648,"##kóz":11649,"eszközöket":11650,"hagyja":11651,"végeredmény":11652,"zsák":11653,"arányban":11654,"##ekul":11655,"legnépszerűbb":11656,"szerb":11657,"termelő":11658,"index":11659,"##típus":11660,"szoktam":11661,"Temet":11662,"att":11663,"##vedett":11664,"jogát":11665,"##mérnök":11666,"##ikó":11667,"##páros":11668,"fölé":11669,"rág":11670,"szimp":11671,"fogjuk":11672,"szovjet":11673,"szerviz":11674,"##kód":11675,"imádkoz":11676,"##ned":11677,"konzult":11678,"##XI":11679,"huszon":11680,"Hamar":11681,"autób":11682,"eredményei":11683,"idővel":11684,"igyekszik":11685,"Azok":11686,"##völgy":11687,"##ÉNEK":11688,"##Am":11689,"gyerekeknek":11690,"##uf":11691,"foglalkozni":11692,"##eráp":11693,"Harm":11694,"Debreceni":11695,"felében":11696,"valakit":11697,"regisztrált":11698,"Sopron":11699,"Ro":11700,"##jétől":11701,"sikerrel":11702,"gumi":11703,"gőz":11704,"magyarul":11705,"##apt":11706,"üzenetet":11707,"épületek":11708,"jegyző":11709,"leírása":11710,"##98":11711,"##õr":11712,"##otikus":11713,"##ŐL":11714,"##áf":11715,"korlátozott":11716,"##asag":11717,"Azóta":11718,"megjelöl":11719,"Ért":11720,"tervezés":11721,"állapota":11722,"ellenzéki":11723,"##mann":11724,"##enie":11725,"##sch":11726,"ket":11727,"bekezdésben":11728,"Szal":11729,"tend":11730,"vallási":11731,"következett":11732,"##zatok":11733,"eredményeként":11734,"időn":11735,"teret":11736,"Sár":11737,"##űlt":11738,"##ülést":11739,"csip":11740,"Abban":11741,"dokumentumok":11742,"kiegyensúly":11743,"ÉV":11744,"labor":11745,"##raszt":11746,"##MTI":11747,"határid":11748,"betű":11749,"##irekt":11750,"##ulaszt":11751,"##ozzon":11752,"egyszerűbb":11753,"##ermeket":11754,"avagy":11755,"Gazd":11756,"akkumulátor":11757,"klin":11758,"Fővárosi":11759,"esetek":11760,"Men":11761,"Négy":11762,"Róbert":11763,"##por":11764,"főbb":11765,"Alkot":11766,"##ukk":11767,"TART":11768,"rut":11769,"Mak":11770,"isteni":11771,"pontjában":11772,"1.1.":11773,"la":11774,"##68":11775,"##own":11776,"élvezet":11777,"belek":11778,"megelőzően":11779,"##ásuk":11780,"##olunk":11781,"politik":11782,"##77":11783,"vám":11784,"jelkép":11785,"ellentmond":11786,"##ájába":11787,"Hosszú":11788,"Szabolcs":11789,"##NT":11790,"unok":11791,"indokolt":11792,"Továbbá":11793,"tartották":11794,"vízben":11795,"műtét":11796,"fektet":11797,"ikon":11798,"##adatok":11799,"0.":11800,"##uv":11801,"típusa":11802,"melletti":11803,"példát":11804,"Bevezetés":11805,"##autó":11806,"Hold":11807,"jelentősége":11808,"árnyal":11809,"##hetőség":11810,"##upa":11811,"##itása":11812,"összesz":11813,"Csoport":11814,"megszület":11815,"##pul":11816,"Microsoft":11817,"##orvosi":11818,"Bab":11819,"##zata":11820,"##előbb":11821,"##fe":11822,"##les":11823,"##ítunk":11824,"Du":11825,"Apple":11826,"##ságon":11827,"lassú":11828,"##jéről":11829,"honlapon":11830,"gyulladás":11831,"órától":11832,"Érdekes":11833,"HELY":11834,"műhely":11835,"elpuszt":11836,"Kálmán":11837,"hangsúlyt":11838,"orv":11839,"vont":11840,"##entől":11841,"##ool":11842,"döntése":11843,"Dom":11844,"##olását":11845,"vegyes":11846,"##onnyal":11847,"bázis":11848,"mondták":11849,"Gu":11850,"Könny":11851,"kapcsolatba":11852,"##tatása":11853,"##ezéssel":11854,"lágy":11855,"érinti":11856,"képtelen":11857,"Neked":11858,"##olid":11859,"Vállalkoz":11860,"folyamatban":11861,"##,8":11862,"Rich":11863,"Fotó":11864,"##De":11865,"kiír":11866,"paraszt":11867,"##zem":11868,"szerepét":11869,"##aimat":11870,"vereség":11871,"LED":11872,"szolgálja":11873,"##Al":11874,"Ható":11875,"megoldani":11876,"horm":11877,"otthont":11878,"Hason":11879,"bocs":11880,"front":11881,"fejét":11882,"##hone":11883,"előadást":11884,"visszajel":11885,"##fejt":11886,"utód":11887,"ront":11888,"javaslatot":11889,"##kezett":11890,"Mátyás":11891,"olyanok":11892,"##eihez":11893,"módszerek":11894,"paradicsom":11895,"##ELEM":11896,"élők":11897,"kital":11898,"adták":11899,"##!!!!":11900,"szeretnéd":11901,"Remélem":11902,"Dáni":11903,"vizsgált":11904,"##uta":11905,"luxus":11906,"hónapja":11907,"##ube":11908,"Ford":11909,"ragy":11910,"hallott":11911,"megvéd":11912,"##hasson":11913,"##ational":11914,"akarják":11915,"összefüggésben":11916,"##edagógiai":11917,"Marc":11918,"##ezések":11919,"menüpont":11920,"Készült":11921,"##lay":11922,"##reszt":11923,"frissen":11924,"labdarúgó":11925,"##ostor":11926,"akarsz":11927,"Rendszer":11928,"szórakoztató":11929,"##kv":11930,"Brüssz":11931,"liter":11932,"futball":11933,"##4)":11934,"##jetek":11935,"##ical":11936,"mennek":11937,"kinev":11938,"köszönhető":11939,"##kai":11940,"##.....":11941,"VÁROS":11942,"##ean":11943,"kezdődő":11944,"ifjúsági":11945,"##,2":11946,"növényi":11947,"születésnap":11948,"##alatt":11949,"fek":11950,"katal":11951,"##RÓP":11952,"##ossá":11953,"koron":11954,"inspir":11955,"versenyen":11956,"hétköznapi":11957,"sl":11958,"##cional":11959,"##05":11960,"29.":11961,"vonatkozásában":11962,"Hitel":11963,"nyomtat":11964,"megír":11965,"##KOLA":11966,"vacsor":11967,"robot":11968,"##elettel":11969,"##tk":11970,"Li":11971,"szalag":11972,"##tv":11973,"méteres":11974,"##roid":11975,"Mont":11976,"fenyeg":11977,"elindult":11978,"létező":11979,"##ade":11980,"##aiból":11981,"hivatalosan":11982,"Sa":11983,"##esked":11984,"egybe":11985,"baktérium":11986,"##izz":11987,"ajánlom":11988,"##edre":11989,"korban":11990,"37":11991,"találta":11992,"##álható":11993,"##UT":11994,"életem":11995,"létrehozott":11996,"##anács":11997,"##iek":11998,"Mark":11999,"tőlük":12000,"terasz":12001,"fedezet":12002,"Párizs":12003,"csinált":12004,"Inter":12005,"##érte":12006,"fárad":12007,"prec":12008,"##ációban":12009,"##atjuk":12010,"várni":12011,"Mod":12012,"konzerv":12013,"autós":12014,"tás":12015,"##további":12016,"Jogú":12017,"citrom":12018,"ragad":12019,"##jelölt":12020,"##zsák":12021,"királyi":12022,"##rael":12023,"bírósági":12024,"többféle":12025,"##mm":12026,"##energia":12027,"lényegében":12028,"##telenek":12029,"##ugr":12030,"Tom":12031,"védelmi":12032,"Közgyűlés":12033,"gondoskodik":12034,"válnak":12035,"##zavar":12036,"nyújtó":12037,"Parlament":12038,"minisztérium":12039,"legfriss":12040,"állom":12041,"inst":12042,"illusztr":12043,"##ruttó":12044,"módosítása":12045,"egyeb":12046,"meghatározása":12047,"65":12048,"bány":12049,"##inger":12050,"##bo":12051,"##házak":12052,"Besz":12053,"##tanács":12054,"forgalmi":12055,"##/2012.":12056,"Szabályzat":12057,"##antól":12058,"összeállítás":12059,"##használat":12060,"érettségi":12061,"levon":12062,"statisztikai":12063,"bevall":12064,"elı":12065,"szerette":12066,"boldogság":12067,"perces":12068,"felirat":12069,"munkatársai":12070,"##egyenl":12071,"kitűnő":12072,"##politika":12073,"villany":12074,"fővárosi":12075,"monitor":12076,"bármit":12077,"##számot":12078,"##KOZ":12079,"kapitány":12080,"ES":12081,"##uff":12082,"##gazdálkodási":12083,"meghalt":12084,"általuk":12085,"##valók":12086,"doktor":12087,"##NYV":12088,"Balog":12089,"legfrissebb":12090,"Egyre":12091,"töreked":12092,"kutatások":12093,"éjszakai":12094,"formája":12095,"##álására":12096,"népi":12097,"der":12098,"hálózati":12099,"##darab":12100,"Prof":12101,"kóst":12102,"##vak":12103,"##CH":12104,"##ôl":12105,"formátum":12106,"text":12107,"légi":12108,"sereg":12109,"írták":12110,"igénylő":12111,"foglalja":12112,"Felelős":12113,"GDP":12114,"Karácsony":12115,"Trump":12116,"repülőgép":12117,"tar":12118,"##hozzá":12119,"folt":12120,"utasítás":12121,"komolyabb":12122,"zöldség":12123,"forgalomba":12124,"##,3":12125,"adunk":12126,"##ájukat":12127,"##irigy":12128,"módosított":12129,"beszélünk":12130,"🙂":12131,"##lanak":12132,"##iport":12133,"##ataink":12134,"számok":12135,"27-":12136,"gyert":12137,"kapcsolódik":12138,"garantált":12139,"##bc":12140,"csapadék":12141,"nevezet":12142,"százalékát":12143,"időnként":12144,"enni":12145,"##keleti":12146,"Pro":12147,"családja":12148,"jegyzőkönyv":12149,"szürke":12150,"##felügy":12151,"holland":12152,"Ahhoz":12153,"##lack":12154,"feltételei":12155,"##űen":12156,"Sziasztok":12157,"alát":12158,"2006-":12159,"##ainkat":12160,"okok":12161,"Felső":12162,"def":12163,"kifejleszt":12164,"##anni":12165,"Sal":12166,"##ect":12167,"Temetése":12168,"bep":12169,"##atása":12170,"országot":12171,"országgyűlési":12172,"Ágnes":12173,"##arat":12174,"##ommal":12175,"nyomon":12176,"##cip":12177,"For":12178,"szóba":12179,"##visel":12180,"##?)":12181,"ID":12182,"amelyre":12183,"##ültem":12184,"Com":12185,"##ÓG":12186,"Mer":12187,"kel":12188,"tesszük":12189,"##esd":12190,"vehető":12191,"rövidebb":12192,"rendőrök":12193,"##OLY":12194,"hallg":12195,"##ülése":12196,"acél":12197,"##ünknek":12198,"múlik":12199,"##6/":12200,"négyzetméter":12201,"##rek":12202,"családtag":12203,"háromszor":12204,"véleményét":12205,"##abbá":12206,"##tudomany":12207,"rekord":12208,"Japán":12209,"mutatta":12210,"mesterséges":12211,"Nyíregy":12212,"hagyjuk":12213,"nézzük":12214,"fogsz":12215,"##napos":12216,"Pi":12217,"##iros":12218,"feltétele":12219,"##net":12220,"agressz":12221,"##mat":12222,"Jász":12223,"túlzott":12224,"fordított":12225,"nála":12226,"gyakorlás":12227,"tevékenységét":12228,"márk":12229,"szabályai":12230,"##LL":12231,"párbeszéd":12232,"##VET":12233,"csatorna":12234,"ugyanazt":12235,"ORSZÁG":12236,"készpénz":12237,"lakossági":12238,"anyagokat":12239,"Orv":12240,"gaszt":12241,"##csillag":12242,"képviselők":12243,"negyven":12244,"##óbeli":12245,"átmeneti":12246,"felsorolt":12247,"Tar":12248,"fejlőd":12249,"felszabad":12250,"##rei":12251,"##ucat":12252,"Kereszt":12253,"##/2015.":12254,"alelnök":12255,"##rét":12256,"kisfi":12257,"otthoni":12258,"kötelezettsége":12259,"bib":12260,"##ml":12261,"ajánlatt":12262,"He":12263,"történetét":12264,"##TR":12265,"li":12266,"horvát":12267,"embereknek":12268,"hekt":12269,"nevezte":12270,"##lati":12271,"##ódást":12272,"2006.":12273,"alkotás":12274,"tilos":12275,"pályára":12276,"Vis":12277,"##képzési":12278,"megismerked":12279,"elgondol":12280,"vesszük":12281,"lennének":12282,"##csapat":12283,"egyidejűleg":12284,"portál":12285,"##képző":12286,"egyez":12287,"mezőny":12288,"optimális":12289,"Sziget":12290,"középiskol":12291,"sohasem":12292,"##annon":12293,"megkül":12294,"felhatalmaz":12295,"##ance":12296,"jogszabályi":12297,"##telefon":12298,"gondolja":12299,"szennyv":12300,"##onat":12301,"Ingatlan":12302,"láss":12303,"területe":12304,"##ael":12305,"növeli":12306,"vonat":12307,"Szombat":12308,"##asson":12309,"közreműködés":12310,"##ájáról":12311,"havonta":12312,"fogyasztói":12313,"hátter":12314,"közzé":12315,"##jére":12316,"##egye":12317,"címét":12318,"##udarc":12319,"##nai":12320,"technika":12321,"##óly":12322,"##úf":12323,"megalak":12324,"##cikk":12325,"##ÉZ":12326,"44":12327,"fürd":12328,"vásárolni":12329,"##etta":12330,"alapított":12331,"##zunk":12332,"SZÁM":12333,"hold":12334,"hazug":12335,"##arát":12336,"lakások":12337,"szell":12338,"Gazdaság":12339,"gimnázium":12340,"Ide":12341,"VIZ":12342,"##ronz":12343,"szenvedély":12344,"autópály":12345,"EP":12346,"##ezünk":12347,"vezetés":12348,"ELTE":12349,"Diák":12350,"##orbeteg":12351,"##vers":12352,"Mód":12353,"Szint":12354,"étterem":12355,"bennük":12356,"Bef":12357,"##ítsák":12358,"munkavállaló":12359,"##egység":12360,"##KV":12361,"szin":12362,"##ellenőr":12363,"bevált":12364,"Mire":12365,"##3/":12366,"##nehez":12367,"vezérigazgató":12368,"##ezred":12369,"##zy":12370,"##niuk":12371,"Prób":12372,"##csökkent":12373,"működése":12374,"egymáshoz":12375,"##vilag":12376,"mérete":12377,"##öveg":12378,"célszerű":12379,"Mell":12380,"##köny":12381,"EURÓP":12382,"##aa":12383,"##10.":12384,"dől":12385,"##66":12386,"műve":12387,"##haz":12388,"##ekért":12389,"virtuális":12390,"prog":12391,"nyújtani":12392,"##felhasznál":12393,"munkák":12394,"lettem":12395,"##bíróság":12396,"##adását":12397,"Bécs":12398,"##suk":12399,"közti":12400,"mindazoknak":12401,"legközelebb":12402,"Tér":12403,"##etnek":12404,"##ezettek":12405,"vásárolt":12406,"adatainak":12407,"barlang":12408,"##aszín":12409,"##ánkban":12410,"szervezők":12411,"gyerekeket":12412,"##uvar":12413,"→":12414,"##továbbiakban":12415,"##ária":12416,"sportág":12417,"völgy":12418,"Techn":12419,"Seb":12420,"##erp":12421,"irányító":12422,"man":12423,"tankönyv":12424,"##gó":12425,"##milli":12426,"##ságosan":12427,"##ÁCS":12428,"##ünkbe":12429,"##vájci":12430,"##kezési":12431,"egészet":12432,"##dődött":12433,"református":12434,"Megrend":12435,"Szlovák":12436,"terem":12437,"##col":12438,"mélyen":12439,"Kez":12440,"dagan":12441,"emlékszem":12442,"##emen":12443,"##szakasz":12444,"szerezni":12445,"szempontok":12446,"tisztség":12447,"##har":12448,"##uly":12449,"polc":12450,"gyöngy":12451,"biológiai":12452,"utóbb":12453,"Art":12454,"tra":12455,"##rid":12456,"szerzői":12457,"##ítom":12458,"##okatlan":12459,"amiből":12460,"gyári":12461,"##vevő":12462,"##éjét":12463,"Zala":12464,"gondolkoz":12465,"##főnök":12466,"télen":12467,"késő":12468,"megbízás":12469,"##ála":12470,"##elésre":12471,"gyűlöl":12472,"EG":12473,"##kocs":12474,"pof":12475,"kommun":12476,"Jav":12477,"kérdéseket":12478,"helyben":12479,"##ATA":12480,"##latot":12481,"derült":12482,"##ero":12483,"támogatásával":12484,"##éval":12485,"lovas":12486,"(6)":12487,"nehogy":12488,"##pontja":12489,"többlet":12490,"##bány":12491,"genet":12492,"általunk":12493,"Kő":12494,"fűző":12495,"cucc":12496,"##34":12497,"##EGYZ":12498,"temp":12499,"2007":12500,"okostelefon":12501,"Bo":12502,"Zöld":12503,"országokban":12504,"nyertes":12505,"minta":12506,"Elekt":12507,"##ömeg":12508,"megjelenés":12509,"##émium":12510,"##niük":12511,"megis":12512,"jellemzően":12513,"okból":12514,"Bajnok":12515,"Eszter":12516,"##aszk":12517,"##RI":12518,"##vin":12519,"##onald":12520,"előnye":12521,"Tudom":12522,"hotel":12523,"szektor":12524,"Vill":12525,"##uzz":12526,"Eger":12527,"Simon":12528,"Kérdés":12529,"Ti":12530,"díjak":12531,"##,1":12532,"##aw":12533,"##hatok":12534,"##ÉRT":12535,"##például":12536,"zsin":12537,"lecs":12538,"kontin":12539,"Mal":12540,"olyat":12541,"udv":12542,"##assuk":12543,"rendszere":12544,"##,7":12545,"##olya":12546,"készültek":12547,"Kelet":12548,"##oduc":12549,"NB":12550,"fogadta":12551,"jelentkező":12552,"azokra":12553,"##ecsem":12554,"##kán":12555,"legel":12556,"puha":12557,"városában":12558,"bol":12559,"##értékű":12560,"szerinte":12561,"mg":12562,"félelm":12563,"##őri":12564,"kudarc":12565,"mostanában":12566,"intézményi":12567,"##SE":12568,"##ácsol":12569,"adás":12570,"vész":12571,"személyzet":12572,"feket":12573,"##,4":12574,"Op":12575,"fogalma":12576,"felold":12577,"kinéz":12578,"##művészet":12579,"értékét":12580,"szam":12581,"kering":12582,"tengely":12583,"picit":12584,"##mart":12585,"Bálint":12586,"barna":12587,"##cell":12588,"növekvő":12589,"bemutatott":12590,"MEGY":12591,"##ismertebb":12592,"MI":12593,"hiteles":12594,"##hatom":12595,"Fáj":12596,"korrekt":12597,"hangszer":12598,"bizonyult":12599,"javítása":12600,"len":12601,"##ámat":12602,"szitu":12603,"##esés":12604,"hüvely":12605,"bűncselekmény":12606,"Alex":12607,"honnan":12608,"Gl":12609,"senkit":12610,"békés":12611,"figur":12612,"autóval":12613,"Kan":12614,"KER":12615,"robban":12616,"jelentkezik":12617,"##ódtak":12618,"félt":12619,"mennyiségben":12620,"szakértői":12621,"számodra":12622,"##csarnok":12623,"Út":12624,"##ételi":12625,"gondot":12626,"##készítés":12627,"díját":12628,"Vad":12629,"vét":12630,"ahová":12631,"részeként":12632,"vezetők":12633,"Református":12634,"Jo":12635,"189":12636,"gombot":12637,"szerves":12638,"##élyeg":12639,"illat":12640,"szőlő":12641,"hibák":12642,"jelző":12643,"##,9":12644,"tréning":12645,"##TC":12646,"##ins":12647,"##épp":12648,"szélesebb":12649,"Jam":12650,"kapja":12651,"sehol":12652,"tartottak":12653,"##olsó":12654,"szimból":12655,"##orld":12656,"##állapot":12657,"##EZÉS":12658,"haszon":12659,"pohár":12660,"##élték":12661,"tükör":12662,"##artman":12663,"##ációval":12664,"##hozni":12665,"##ÉV":12666,"##OGRAM":12667,"főszereplő":12668,"élettartam":12669,"fekszik":12670,"##kes":12671,"bruttó":12672,"vari":12673,"Form":12674,"pápa":12675,"Telefon":12676,"##kutató":12677,"odafigy":12678,"futár":12679,"CL":12680,"##vények":12681,"fokozat":12682,"##adion":12683,"##szolgált":12684,"ugyanez":12685,"résztvev":12686,"Biztonság":12687,"##ennyit":12688,"Jel":12689,"So":12690,"##dd":12691,"tanító":12692,"Sc":12693,"soron":12694,"Ev":12695,"haladék":12696,"megtartott":12697,"előírások":12698,"##afut":12699,"mindenképp":12700,"eszközökkel":12701,"Nonprofit":12702,"eredő":12703,"##AZD":12704,"##aty":12705,"##ízis":12706,"hagyni":12707,"kiált":12708,"##adrág":12709,"látják":12710,"elhelyezett":12711,"##sek":12712,"hátul":12713,"törvények":12714,"##lant":12715,"fidesz":12716,"karbantart":12717,"bezár":12718,"kialakítás":12719,"mögé":12720,"##avig":12721,"bevásár":12722,"ri":12723,"irányába":12724,"turisztikai":12725,"amihez":12726,"fogadja":12727,"Honvéd":12728,"Iroda":12729,"rehabilit":12730,"szemlél":12731,"##ítson":12732,"építeni":12733,"meghaladó":12734,"##dnek":12735,"Oktatási":12736,"##hold":12737,"gyorsabban":12738,"találunk":12739,"##hit":12740,"akarunk":12741,"##abeli":12742,"kezében":12743,"medenc":12744,"másképp":12745,"##hős":12746,"##kis":12747,"##attuk":12748,"ülésére":12749,"szolgáltatási":12750,"##ington":12751,"Angel":12752,"Erről":12753,"megtörtén":12754,"##An":12755,"##ezheti":12756,"##ae":12757,"törlés":12758,"HAT":12759,"##ünkön":12760,"##hatta":12761,"##mutat":12762,"##hasznos":12763,"##ideje":12764,"sza":12765,"##olj":12766,"##enem":12767,"méreg":12768,"Mus":12769,"Index":12770,"Sik":12771,"##KK":12772,"##szövet":12773,"ov":12774,"pillanatok":12775,"zenét":12776,"segítenek":12777,"##tóber":12778,"nyugalom":12779,"Előfizet":12780,"##ózsa":12781,"Ger":12782,"Közel":12783,"jellemzi":12784,"vándor":12785,"Brüsszel":12786,"250":12787,"akárm":12788,"bent":12789,"Rendőr":12790,"rutin":12791,"Erő":12792,"##istály":12793,"##esítmény":12794,"Család":12795,"pályázó":12796,"beszélve":12797,"##menny":12798,"célt":12799,"les":12800,"##őny":12801,"megvilág":12802,"Tájékoztató":12803,"készítette":12804,"Tavaly":12805,"elsõ":12806,"tes":12807,"##output":12808,"##egészségügyi":12809,"sokféle":12810,"29-":12811,"állítani":12812,"##olád":12813,"##ulin":12814,"megszabad":12815,"##4/":12816,"Szerző":12817,"térd":12818,"##bet":12819,"bronz":12820,"##étt":12821,"##állítani":12822,"##jól":12823,"élénk":12824,"tudtuk":12825,"összej":12826,"mellékhat":12827,"helyezkedik":12828,"csodás":12829,"##vételt":12830,"Rádió":12831,"pedagógusok":12832,"forgatók":12833,"##8)":12834,"férfit":12835,"##udomány":12836,"megítél":12837,"##lését":12838,"házban":12839,"folyós":12840,"erővel":12841,"egészségügy":12842,"##tetni":12843,"Kollégium":12844,"##zékeny":12845,"vizes":12846,"##fesztivál":12847,"megvalósítása":12848,"##12.":12849,"##helyettes":12850,"Mos":12851,"pusztán":12852,"##étert":12853,"kitör":12854,"##hálózat":12855,"##ele":12856,"kibont":12857,"JOG":12858,"kapcsolattart":12859,"ink":12860,"##eszem":12861,"Szél":12862,"##zetesen":12863,"600":12864,"segített":12865,"turizmus":12866,"baráti":12867,"összefoglaló":12868,"megyek":12869,"ox":12870,"##emények":12871,"##OSZ":12872,"##ásból":12873,"VIZSG":12874,"Pécsi":12875,"##sag":12876,"##ZS":12877,"##errel":12878,"Bors":12879,"ismerik":12880,"fűz":12881,"Vált":12882,"Ink":12883,"érezni":12884,"##eszközök":12885,"ellenőrzése":12886,"##iszem":12887,"##fed":12888,"megeml":12889,"falak":12890,"latin":12891,"po":12892,"##.),":12893,"okirat":12894,"szerkesztőség":12895,"hatvan":12896,"Bő":12897,"Közleked":12898,"##ékkel":12899,"##ájus":12900,"San":12901,"ezekkel":12902,"beind":12903,"döntések":12904,"Baj":12905,"##acebo":12906,"Mot":12907,"különben":12908,"##brid":12909,"magától":12910,"ukrán":12911,"##ÓK":12912,"##1/":12913,"véleményt":12914,"##elmét":12915,"fotók":12916,"##kun":12917,"##iával":12918,"##pressz":12919,"Had":12920,"tőlünk":12921,"egykor":12922,"tárgyi":12923,"diagnoszt":12924,"##mez":12925,"háztart":12926,"szükséglet":12927,"tartjuk":12928,"belváros":12929,"Ant":12930,"kompon":12931,"megállapított":12932,"árul":12933,"CX":12934,"fix":12935,"változtatni":12936,"hú":12937,"hamarabb":12938,"##erekkel":12939,"##parser":12940,"##09":12941,"szerepelnek":12942,"BUD":12943,"##bud":12944,"##fot":12945,"fenyeget":12946,"gyakorolt":12947,"számban":12948,"nyugat":12949,"##stubb":12950,"##stubbox":12951,"##forgalom":12952,"##100":12953,"megtapasztal":12954,"Konfer":12955,"Általában":12956,"Bíróság":12957,"csuk":12958,"gyorsabb":12959,"Wi":12960,"választotta":12961,"Művészeti":12962,"maradnak":12963,"##NÉ":12964,"gyermeket":12965,"Székes":12966,"TÖ":12967,"előadások":12968,"lefelé":12969,"tengerpart":12970,"Albert":12971,"várnak":12972,"##DÉS":12973,"##ena":12974,"kerülni":12975,"Stat":12976,"erők":12977,"Akik":12978,"feszültség":12979,"magabizt":12980,"főnök":12981,"DE":12982,"használnak":12983,"export":12984,"közülük":12985,"##tatta":12986,"##uljon":12987,"lim":12988,"szerda":12989,"bed":12990,"egészében":12991,"irányban":12992,"##ké":12993,"düh":12994,"oldalra":12995,"##éki":12996,"számolt":12997,"##ámaszt":12998,"EURÓPAI":12999,"cir":13000,"##vágy":13001,"teljesítményt":13002,"arch":13003,"kapacitás":13004,"válogat":13005,"jártam":13006,"Han":13007,"nemi":13008,"##bőr":13009,"hallani":13010,"bajnokság":13011,"##mérő":13012,"platform":13013,"Lét":13014,"##aikat":13015,"újonnan":13016,"szénhid":13017,"##elmúlt":13018,"végleg":13019,"õ":13020,"venn":13021,"ók":13022,"Készítette":13023,"Hasonló":13024,"hozzászólás":13025,"nagyban":13026,"##ílt":13027,"zsűri":13028,"##íciók":13029,"viselkedés":13030,"design":13031,"határa":13032,"megszak":13033,"izz":13034,"ident":13035,"##izm":13036,"útra":13037,"változata":13038,"Bog":13039,"szembeni":13040,"házak":13041,"vonzó":13042,"##hó":13043,"Lov":13044,"korrup":13045,"tartalmát":13046,"##jaiban":13047,"jelennek":13048,"##rai":13049,"helyettesít":13050,"##ccs":13051,"tudomásul":13052,"##szki":13053,"##ostól":13054,"színe":13055,"##72":13056,"nagyság":13057,"Közhasznú":13058,"##ney":13059,"Rad":13060,"üzemeltető":13061,"##enciák":13062,"##hetőek":13063,"##aszám":13064,"dim":13065,"##helyet":13066,"levélben":13067,"##ruház":13068,"Különösen":13069,"##fenn":13070,"igencsak":13071,"39":13072,"féle":13073,"ingatlanok":13074,"épülő":13075,"##olásra":13076,"munkavállalók":13077,"##méretű":13078,"##aktor":13079,"óvoda":13080,"##/2013.":13081,"Kéz":13082,"szokatlan":13083,"horgász":13084,"illeg":13085,"hittem":13086,"felvételi":13087,"##vezmény":13088,"##űvös":13089,"anim":13090,"##ASZN":13091,"játszó":13092,"Kim":13093,"senkinek":13094,"##ézis":13095,"eredményes":13096,"jo":13097,"félelem":13098,"járni":13099,"felépítés":13100,"tartunk":13101,"köze":13102,"##osított":13103,"üzemanyag":13104,"piacra":13105,"##iót":13106,"##LD":13107,"Kicsit":13108,"jobbra":13109,"##ődés":13110,"illik":13111,"##ükség":13112,"##eszter":13113,"##dc":13114,"pécsi":13115,"távoli":13116,"hangzik":13117,"cukorbeteg":13118,"gab":13119,"ereje":13120,"veh":13121,"tanulmányi":13122,"Németországban":13123,"béke":13124,"karakt":13125,"1,5":13126,"gyereket":13127,"szennyvíz":13128,"hatékonyan":13129,"uralkodó":13130,"TÁR":13131,"Név":13132,"no":13133,"hev":13134,"vezeti":13135,"##order":13136,"nedv":13137,"##itas":13138,"Figyelem":13139,"Vezet":13140,"övezet":13141,"ásványi":13142,"krón":13143,"tanítás":13144,"színházi":13145,"egyúttal":13146,"##elõ":13147,"ellene":13148,"győztes":13149,"népszerűs":13150,"megalkot":13151,"vigyáz":13152,"praktikus":13153,"Mo":13154,"##rad":13155,"##enünk":13156,"egyből":13157,"##vend":13158,"##lad":13159,"##épít":13160,"húsvét":13161,"remekül":13162,"átutal":13163,"##/2014.":13164,"csomagolás":13165,"órák":13166,"máshol":13167,"Ettől":13168,"Luk":13169,"Hozzát":13170,"üld":13171,"belet":13172,"értesül":13173,"benyújtott":13174,"##gyár":13175,"##kutatás":13176,"helyezés":13177,"edény":13178,"pól":13179,"##orvég":13180,"Ugyanis":13181,"kezelhető":13182,"##ükön":13183,"##/2011.":13184,"##tenger":13185,"##ehéz":13186,"##ánok":13187,"tevékenyked":13188,"televízió":13189,"##alapú":13190,"##izód":13191,"hagyta":13192,"forrása":13193,"##ofőr":13194,"óriás":13195,"módosításáról":13196,"Emberi":13197,"##anál":13198,"álltak":13199,"lényegesen":13200,"##blog":13201,"Magas":13202,"közelmúlt":13203,"padló":13204,"hagyott":13205,"##ezzen":13206,"lt":13207,"Szolgáltatás":13208,"##osnak":13209,"Édes":13210,"##idős":13211,"##essel":13212,"##ésekre":13213,"##ködik":13214,"egyszeri":13215,"##minden":13216,"##ülését":13217,"##őkész":13218,"Berlin":13219,"Online":13220,"megmaradt":13221,"lőtt":13222,"céllal":13223,"küls":13224,"Polgári":13225,"##ali":13226,"##ínál":13227,"beoszt":13228,"cikket":13229,"Bem":13230,"USB":13231,"beton":13232,"szeretik":13233,"szocialista":13234,"elképzelés":13235,"erdélyi":13236,"##BC":13237,"##oszkóp":13238,"legjelent":13239,"##eltség":13240,"tervezet":13241,"értékelése":13242,"hívják":13243,"##ken":13244,"kedvel":13245,"##ességek":13246,"##.).":13247,"##ÓD":13248,"##ítések":13249,"##SH":13250,"184":13251,"led":13252,"Erdély":13253,"##VEZET":13254,"##67":13255,"kiválóan":13256,"##ÉKOZ":13257,"maradjon":13258,"stratégia":13259,"védelméről":13260,"##zedék":13261,"##szél":13262,"##együtt":13263,"##árg":13264,"##kur":13265,"eleme":13266,"léleg":13267,"PROGRAM":13268,"##özés":13269,"császár":13270,"##ödés":13271,"kompl":13272,"tekintetben":13273,"cselekmény":13274,"Amúgy":13275,"##elje":13276,"##szavaz":13277,"önállóan":13278,"Mész":13279,"Legalább":13280,"fennálló":13281,"vagytok":13282,"Szolnok":13283,"számítógépes":13284,"##yn":13285,"lépést":13286,"##ületek":13287,"Mielőtt":13288,"##rang":13289,"##assák":13290,"megr":13291,"ruház":13292,"##lést":13293,"##tív":13294,"kím":13295,"elcs":13296,"eszközt":13297,"felét":13298,"romantikus":13299,"Hiába":13300,"##fól":13301,"lenyűg":13302,"katasztróf":13303,"Dob":13304,"Kecskemét":13305,"ÁSZ":13306,"##64":13307,"érintettek":13308,"objekt":13309,"##pálya":13310,"weboldalon":13311,"##MA":13312,"jegyében":13313,"meghaladja":13314,"##Or":13315,"nagyot":13316,"lendület":13317,"egymásnak":13318,"érkeztek":13319,"zuhany":13320,"##atnak":13321,"berendezések":13322,"meghosszabb":13323,"mol":13324,"vegye":13325,"érezte":13326,"##JÁN":13327,"depressz":13328,"Máté":13329,"##unkkal":13330,"##elésére":13331,"védelmet":13332,"Államokban":13333,"##lep":13334,"##69":13335,"támogatások":13336,"##poz":13337,"felkészült":13338,"##uhász":13339,"##%)":13340,"felmerült":13341,"ötv":13342,"maradni":13343,"különleg":13344,
[...]
